{
  "version": "1.0",
  "truncation": null,
  "padding": null,
  "added_tokens": [
    {
      "id": 0,
      "content": "[UNK]",
      "single_word": false,
      "lstrip": false,
      "rstrip": false,
      "normalized": false,
      "special": true
    },
    {
      "id": 1,
      "content": "[CLS]",
      "single_word": false,
      "lstrip": false,
      "rstrip": false,
      "normalized": false,
      "special": true
    },
    {
      "id": 2,
      "content": "[SEP]",
      "single_word": false,
      "lstrip": false,
      "rstrip": false,
      "normalized": false,
      "special": true
    },
    {
      "id": 3,
      "content": "[PAD]",
      "single_word": false,
      "lstrip": false,
      "rstrip": false,
      "normalized": false,
      "special": true
    },
    {
      "id": 4,
      "content": "[MASK]",
      "single_word": false,
      "lstrip": false,
      "rstrip": false,
      "normalized": false,
      "special": true
    }
  ],
  "normalizer": null,
  "pre_tokenizer": {
    "type": "Whitespace"
  },
  "post_processor": null,
  "decoder": null,
  "model": {
    "type": "BPE",
    "dropout": null,
    "unk_token": "[UNK]",
    "continuing_subword_prefix": null,
    "end_of_word_suffix": null,
    "fuse_unk": false,
    "byte_fallback": false,
    "ignore_merges": false,
    "vocab": {
      "[UNK]": 0,
      "[CLS]": 1,
      "[SEP]": 2,
      "[PAD]": 3,
      "[MASK]": 4,
      "\u0006": 5,
      "\u0007": 6,
      "\u000f": 7,
      "\u0010": 8,
      "\u0013": 9,
      "!": 10,
      "\"": 11,
      "#": 12,
      "$": 13,
      "%": 14,
      "&": 15,
      "'": 16,
      "(": 17,
      ")": 18,
      "*": 19,
      "+": 20,
      ",": 21,
      "-": 22,
      ".": 23,
      "/": 24,
      "0": 25,
      "1": 26,
      "2": 27,
      "3": 28,
      "4": 29,
      "5": 30,
      "6": 31,
      "7": 32,
      "8": 33,
      "9": 34,
      ":": 35,
      ";": 36,
      "=": 37,
      ">": 38,
      "?": 39,
      "@": 40,
      "A": 41,
      "B": 42,
      "C": 43,
      "D": 44,
      "E": 45,
      "F": 46,
      "G": 47,
      "H": 48,
      "I": 49,
      "J": 50,
      "K": 51,
      "L": 52,
      "M": 53,
      "N": 54,
      "O": 55,
      "P": 56,
      "Q": 57,
      "R": 58,
      "S": 59,
      "T": 60,
      "U": 61,
      "V": 62,
      "W": 63,
      "X": 64,
      "Y": 65,
      "Z": 66,
      "[": 67,
      "\\": 68,
      "]": 69,
      "^": 70,
      "_": 71,
      "`": 72,
      "a": 73,
      "b": 74,
      "c": 75,
      "d": 76,
      "e": 77,
      "f": 78,
      "g": 79,
      "h": 80,
      "i": 81,
      "j": 82,
      "k": 83,
      "l": 84,
      "m": 85,
      "n": 86,
      "o": 87,
      "p": 88,
      "q": 89,
      "r": 90,
      "s": 91,
      "t": 92,
      "u": 93,
      "v": 94,
      "w": 95,
      "x": 96,
      "y": 97,
      "z": 98,
      "{": 99,
      "|": 100,
      "}": 101,
      "~": 102,
      "": 103,
      "": 104,
      "¢": 105,
      "£": 106,
      "¦": 107,
      "§": 108,
      "¨": 109,
      "©": 110,
      "ª": 111,
      "«": 112,
      "¬": 113,
      "­": 114,
      "®": 115,
      "°": 116,
      "±": 117,
      "²": 118,
      "µ": 119,
      "·": 120,
      "º": 121,
      "»": 122,
      "¼": 123,
      "½": 124,
      "¾": 125,
      "Â": 126,
      "Ç": 127,
      "Î": 128,
      "×": 129,
      "Þ": 130,
      "â": 131,
      "ã": 132,
      "å": 133,
      "æ": 134,
      "ç": 135,
      "ê": 136,
      "ë": 137,
      "î": 138,
      "ï": 139,
      "ô": 140,
      "ø": 141,
      "û": 142,
      "th": 143,
      "in": 144,
      "re": 145,
      "an": 146,
      "the": 147,
      "er": 148,
      "at": 149,
      "is": 150,
      "on": 151,
      "ou": 152,
      "as": 153,
      "or": 154,
      "it": 155,
      "and": 156,
      "al": 157,
      "to": 158,
      "en": 159,
      "es": 160,
      "ing": 161,
      "ed": 162,
      "of": 163,
      "ar": 164,
      "ve": 165,
      "ic": 166,
      "st": 167,
      "he": 168,
      "ly": 169,
      "se": 170,
      "le": 171,
      "me": 172,
      "ro": 173,
      "ut": 174,
      "be": 175,
      "ch": 176,
      "oo": 177,
      "ha": 178,
      "ot": 179,
      "for": 180,
      "ll": 181,
      "so": 182,
      "wi": 183,
      "ke": 184,
      "this": 185,
      "ver": 186,
      "ast": 187,
      "li": 188,
      "ac": 189,
      "we": 190,
      "fe": 191,
      "co": 192,
      "that": 193,
      "you": 194,
      "gh": 195,
      "wh": 196,
      "ma": 197,
      "my": 198,
      "are": 199,
      "et": 200,
      "ood": 201,
      "with": 202,
      "la": 203,
      "but": 204,
      "de": 205,
      "ld": 206,
      "ow": 207,
      "ri": 208,
      "have": 209,
      "The": 210,
      "not": 211,
      "was": 212,
      "ct": 213,
      "pro": 214,
      "su": 215,
      "ter": 216,
      "ay": 217,
      "tast": 218,
      "ent": 219,
      "di": 220,
      "ag": 221,
      "do": 222,
      "..": 223,
      "ce": 224,
      "ab": 225,
      "lo": 226,
      "out": 227,
      "ad": 228,
      "te": 229,
      "mo": 230,
      "one": 231,
      "all": 232,
      "ti": 233,
      "like": 234,
      "Th": 235,
      "vor": 236,
      "up": 237,
      "ally": 238,
      "du": 239,
      "am": 240,
      "reat": 241,
      "ack": 242,
      "ice": 243,
      "fla": 244,
      "ght": 245,
      "very": 246,
      "pp": 247,
      "they": 248,
      "ould": 249,
      "ther": 250,
      "can": 251,
      "them": 252,
      "ir": 253,
      "It": 254,
      "un": 255,
      "ust": 256,
      "us": 257,
      "ur": 258,
      "flavor": 259,
      "fee": 260,
      "com": 261,
      "con": 262,
      "pe": 263,
      "si": 264,
      "good": 265,
      "tr": 266,
      "ex": 267,
      "produ": 268,
      "product": 269,
      "oun": 270,
      "any": 271,
      "taste": 272,
      "these": 273,
      "ca": 274,
      "ul": 275,
      "ate": 276,
      "use": 277,
      "end": 278,
      "sh": 279,
      "ne": 280,
      "ion": 281,
      "offee": 282,
      "ite": 283,
      "mi": 284,
      "some": 285,
      "ain": 286,
      "just": 287,
      "per": 288,
      "ink": 289,
      "get": 290,
      "fin": 291,
      "coffee": 292,
      "qu": 293,
      "This": 294,
      "other": 295,
      "fro": 296,
      "der": 297,
      "food": 298,
      "ess": 299,
      "if": 300,
      "bo": 301,
      "thing": 302,
      "great": 303,
      "ook": 304,
      "from": 305,
      "more": 306,
      "ick": 307,
      "red": 308,
      "est": 309,
      "ant": 310,
      "pr": 311,
      "bu": 312,
      "has": 313,
      "id": 314,
      "sa": 315,
      "would": 316,
      "our": 317,
      "op": 318,
      "dr": 319,
      "had": 320,
      "tea": 321,
      "no": 322,
      "pre": 323,
      "will": 324,
      "ven": 325,
      "than": 326,
      "eat": 327,
      "ill": 328,
      "ie": 329,
      "um": 330,
      "ough": 331,
      "way": 332,
      "tle": 333,
      "ound": 334,
      "ong": 335,
      "too": 336,
      "when": 337,
      "love": 338,
      "now": 339,
      "hi": 340,
      "ies": 341,
      "mu": 342,
      "wor": 343,
      "dog": 344,
      "sto": 345,
      "maz": 346,
      "buy": 347,
      "fre": 348,
      "lit": 349,
      "ich": 350,
      "about": 351,
      "pack": 352,
      "ars": 353,
      "af": 354,
      "ble": 355,
      "really": 356,
      "go": 357,
      "ried": 358,
      "ive": 359,
      "My": 360,
      "only": 361,
      "ra": 362,
      "ous": 363,
      "art": 364,
      "ak": 365,
      "ine": 366,
      "your": 367,
      "try": 368,
      "time": 369,
      "don": 370,
      "il": 371,
      "ho": 372,
      "che": 373,
      "...": 374,
      "cause": 375,
      "bag": 376,
      "much": 377,
      "mazon": 378,
      "po": 379,
      "day": 380,
      "act": 381,
      "They": 382,
      "ps": 383,
      "cup": 384,
      "add": 385,
      "ty": 386,
      "!!": 387,
      "ers": 388,
      "ge": 389,
      "bet": 390,
      "drink": 391,
      "ought": 392,
      "weet": 393,
      "col": 394,
      "pl": 395,
      "int": 396,
      "ard": 397,
      "were": 398,
      "little": 399,
      "cho": 400,
      "because": 401,
      "ple": 402,
      "gr": 403,
      "dis": 404,
      "br": 405,
      "sweet": 406,
      "find": 407,
      "ved": 408,
      "price": 409,
      "We": 410,
      "ves": 411,
      "ese": 412,
      "Amazon": 413,
      "ure": 414,
      "did": 415,
      "ck": 416,
      "ater": 417,
      "which": 418,
      "been": 419,
      "by": 420,
      "over": 421,
      "gar": 422,
      "mon": 423,
      "bre": 424,
      "bit": 425,
      "what": 426,
      "tried": 427,
      "alth": 428,
      "who": 429,
      "ren": 430,
      "bl": 431,
      "cr": 432,
      "ful": 433,
      "ving": 434,
      "does": 435,
      "comm": 436,
      "ye": 437,
      "also": 438,
      "see": 439,
      "ci": 440,
      "able": 441,
      "make": 442,
      "cal": 443,
      "ffe": 444,
      "after": 445,
      "even": 446,
      "her": 447,
      "sp": 448,
      "fa": 449,
      "most": 450,
      "ious": 451,
      "better": 452,
      "sm": 453,
      "best": 454,
      "she": 455,
      "treat": 456,
      "cook": 457,
      "there": 458,
      "store": 459,
      "well": 460,
      "ff": 461,
      "cat": 462,
      "box": 463,
      "ry": 464,
      "im": 465,
      "sal": 466,
      "cont": 467,
      "ase": 468,
      "ist": 469,
      "ig": 470,
      "fo": 471,
      "app": 472,
      "lic": 473,
      "ber": 474,
      "water": 475,
      "irst": 476,
      "every": 477,
      "chi": 478,
      "here": 479,
      "health": 480,
      "order": 481,
      "pur": 482,
      "colate": 483,
      "commend": 484,
      "orn": 485,
      "mak": 486,
      "look": 487,
      "jo": 488,
      "If": 489,
      "used": 490,
      "their": 491,
      "want": 492,
      "mix": 493,
      "recommend": 494,
      "brand": 495,
      "ity": 496,
      "own": 497,
      "comp": 498,
      "tw": 499,
      "ation": 500,
      "packag": 501,
      "work": 502,
      "So": 503,
      "ep": 504,
      "ents": 505,
      "sugar": 506,
      "could": 507,
      "think": 508,
      "first": 509,
      "str": 510,
      "ish": 511,
      "ze": 512,
      "ue": 513,
      "again": 514,
      "chocolate": 515,
      "know": 516,
      ").": 517,
      "ind": 518,
      "These": 519,
      "purch": 520,
      "less": 521,
      "made": 522,
      "found": 523,
      "real": 524,
      "--": 525,
      "high": 526,
      "free": 527,
      "vie": 528,
      "ser": 529,
      "ms": 530,
      "its": 531,
      "uff": 532,
      "sn": 533,
      "say": 534,
      "then": 535,
      "joy": 536,
      "won": 537,
      "redi": 538,
      "eas": 539,
      "view": 540,
      "ting": 541,
      "les": 542,
      "Wh": 543,
      "ily": 544,
      "need": 545,
      "bought": 546,
      "ince": 547,
      "favor": 548,
      "car": 549,
      "ts": 550,
      "gan": 551,
      "diffe": 552,
      "review": 553,
      "differen": 554,
      "ment": 555,
      "ular": 556,
      "got": 557,
      "off": 558,
      "two": 559,
      "long": 560,
      "shi": 561,
      "mil": 562,
      "tion": 563,
      "lut": 564,
      "low": 565,
      "enjoy": 566,
      "ave": 567,
      "cer": 568,
      "fore": 569,
      "snack": 570,
      "old": 571,
      "fect": 572,
      "row": 573,
      "ased": 574,
      "ach": 575,
      "small": 576,
      "nut": 577,
      "ingredi": 578,
      "An": 579,
      "ake": 580,
      "ste": 581,
      "lot": 582,
      "ru": 583,
      "tastes": 584,
      "bs": 585,
      "nice": 586,
      "still": 587,
      "into": 588,
      "fresh": 589,
      "licious": 590,
      "ight": 591,
      "But": 592,
      "lf": 593,
      "give": 594,
      "ever": 595,
      "many": 596,
      "light": 597,
      "ways": 598,
      "reg": 599,
      "ated": 600,
      "favorite": 601,
      "min": 602,
      "how": 603,
      "nat": 604,
      "ans": 605,
      "ition": 606,
      "av": 607,
      "mp": 608,
      "med": 609,
      "few": 610,
      "stuff": 611,
      "dered": 612,
      "strong": 613,
      "cre": 614,
      "flavors": 615,
      "delicious": 616,
      "qual": 617,
      "right": 618,
      "ount": 619,
      "da": 620,
      "since": 621,
      "mell": 622,
      "something": 623,
      "before": 624,
      "bot": 625,
      "hot": 626,
      "back": 627,
      "ap": 628,
      "pping": 629,
      "unch": 630,
      "dogs": 631,
      "ss": 632,
      "put": 633,
      "gre": 634,
      "ile": 635,
      "happ": 636,
      "never": 637,
      "bab": 638,
      "years": 639,
      "didn": 640,
      "el": 641,
      "In": 642,
      "may": 643,
      "read": 644,
      "perfect": 645,
      "sure": 646,
      "without": 647,
      "exp": 648,
      "though": 649,
      "always": 650,
      "same": 651,
      "treats": 652,
      "ks": 653,
      "smell": 654,
      "different": 655,
      "ganic": 656,
      "healthy": 657,
      "mar": 658,
      "oney": 659,
      "10": 660,
      "quality": 661,
      "hel": 662,
      "month": 663,
      "ree": 664,
      "loves": 665,
      "milk": 666,
      "fri": 667,
      "ness": 668,
      "ket": 669,
      "keep": 670,
      "ose": 671,
      "chips": 672,
      "makes": 673,
      "corn": 674,
      "enough": 675,
      "doesn": 676,
      "ingredients": 677,
      "wever": 678,
      "ds": 679,
      "ort": 680,
      "hard": 681,
      "He": 682,
      "ener": 683,
      "down": 684,
      "gg": 685,
      "gi": 686,
      "ture": 687,
      "mes": 688,
      "ari": 689,
      "vo": 690,
      "using": 691,
      "feel": 692,
      "bad": 693,
      "self": 694,
      "products": 695,
      "contain": 696,
      "TH": 697,
      "regular": 698,
      "pret": 699,
      "ordered": 700,
      "ces": 701,
      "calor": 702,
      "eating": 703,
      "last": 704,
      "ned": 705,
      "where": 706,
      "cent": 707,
      "You": 708,
      "ually": 709,
      "lu": 710,
      "while": 711,
      "oil": 712,
      "pect": 713,
      "his": 714,
      "VE": 715,
      "aw": 716,
      "des": 717,
      "open": 718,
      "finite": 719,
      "ason": 720,
      "new": 721,
      "part": 722,
      "Al": 723,
      "proble": 724,
      "chew": 725,
      "rough": 726,
      "salt": 727,
      "side": 728,
      "ural": 729,
      "start": 730,
      "man": 731,
      "far": 732,
      "icken": 733,
      "finitely": 734,
      "pped": 735,
      "sive": 736,
      "lik": 737,
      "cri": 738,
      "ull": 739,
      "vi": 740,
      "meal": 741,
      "fru": 742,
      "wonder": 743,
      "thought": 744,
      "mer": 745,
      "And": 746,
      "),": 747,
      "times": 748,
      "peci": 749,
      "age": 750,
      "big": 751,
      "fast": 752,
      "ass": 753,
      "pot": 754,
      "ace": 755,
      "....": 756,
      "exce": 757,
      "buying": 758,
      "easy": 759,
      "bags": 760,
      "through": 761,
      "lar": 762,
      "size": 763,
      "son": 764,
      "ger": 765,
      "those": 766,
      "cookies": 767,
      "local": 768,
      "come": 769,
      "St": 770,
      "ark": 771,
      "him": 772,
      "cle": 773,
      "fi": 774,
      "pow": 775,
      "sau": 776,
      "fact": 777,
      "Not": 778,
      "inn": 779,
      "pretty": 780,
      "ai": 781,
      "quick": 782,
      "pop": 783,
      "atch": 784,
      "brew": 785,
      "organic": 786,
      "past": 787,
      "tur": 788,
      "looking": 789,
      "gro": 790,
      "take": 791,
      "Ho": 792,
      "ef": 793,
      "ople": 794,
      "fat": 795,
      "should": 796,
      "When": 797,
      "package": 798,
      "definitely": 799,
      "being": 800,
      "whole": 801,
      "going": 802,
      "ten": 803,
      "cats": 804,
      "sha": 805,
      "wee": 806,
      "actually": 807,
      "happy": 808,
      "gu": 809,
      "butter": 810,
      "each": 811,
      "RE": 812,
      "Co": 813,
      "ence": 814,
      "sy": 815,
      "usu": 816,
      "ensive": 817,
      "tasty": 818,
      "diet": 819,
      "quite": 820,
      "ext": 821,
      "Ch": 822,
      "bar": 823,
      "rece": 824,
      "disapp": 825,
      "tex": 826,
      "There": 827,
      "home": 828,
      "around": 829,
      "iced": 830,
      "ange": 831,
      "year": 832,
      "hal": 833,
      "hand": 834,
      "wonderful": 835,
      "She": 836,
      "Great": 837,
      "both": 838,
      "expect": 839,
      "cups": 840,
      "shipping": 841,
      "ones": 842,
      "expensive": 843,
      "came": 844,
      "oint": 845,
      "another": 846,
      "vari": 847,
      "people": 848,
      "purchase": 849,
      "ame": 850,
      "tein": 851,
      "almost": 852,
      "texture": 853,
      "ately": 854,
      "calories": 855,
      "kid": 856,
      "green": 857,
      "friend": 858,
      "heat": 859,
      "natural": 860,
      "gy": 861,
      "dry": 862,
      "Be": 863,
      "anything": 864,
      "fam": 865,
      "line": 866,
      "llent": 867,
      "worth": 868,
      "kind": 869,
      "tasted": 870,
      "IN": 871,
      "tasting": 872,
      "ato": 873,
      "fill": 874,
      "pie": 875,
      "supp": 876,
      "sauce": 877,
      "luten": 878,
      "20": 879,
      "fer": 880,
      "rest": 881,
      "orning": 882,
      "ise": 883,
      "cand": 884,
      "purchased": 885,
      "disappoint": 886,
      "chicken": 887,
      "anut": 888,
      "pick": 889,
      "grocer": 890,
      "morning": 891,
      "half": 892,
      "fan": 893,
      "inc": 894,
      "cond": 895,
      "conut": 896,
      "tra": 897,
      "pt": 898,
      "variet": 899,
      "ouse": 900,
      "full": 901,
      "bars": 902,
      "blend": 903,
      "oz": 904,
      "ance": 905,
      "amount": 906,
      "trying": 907,
      "ier": 908,
      "feed": 909,
      "stores": 910,
      "protein": 911,
      "live": 912,
      "break": 913,
      "sat": 914,
      "No": 915,
      "AN": 916,
      "cereal": 917,
      "ical": 918,
      "help": 919,
      "pres": 920,
      "bitter": 921,
      "ls": 922,
      "smoo": 923,
      "days": 924,
      "said": 925,
      "mach": 926,
      "arri": 927,
      "cid": 928,
      "illa": 929,
      "getting": 930,
      "As": 931,
      "sur": 932,
      "recei": 933,
      "bably": 934,
      "foods": 935,
      "away": 936,
      "ery": 937,
      "reci": 938,
      "aper": 939,
      "brands": 940,
      "super": 941,
      "things": 942,
      "However": 943,
      "rice": 944,
      "sit": 945,
      "bottle": 946,
      "For": 947,
      "vored": 948,
      "reason": 949,
      "LO": 950,
      "anilla": 951,
      "grocery": 952,
      "fruit": 953,
      "gluten": 954,
      "itch": 955,
      "ash": 956,
      "sever": 957,
      "12": 958,
      "berry": 959,
      "several": 960,
      "ins": 961,
      "ky": 962,
      "cream": 963,
      "cost": 964,
      "added": 965,
      "solut": 966,
      "probably": 967,
      "peanut": 968,
      "NO": 969,
      "sion": 970,
      "flavored": 971,
      "case": 972,
      "family": 973,
      "smooth": 974,
      "months": 975,
      "comes": 976,
      "lt": 977,
      "might": 978,
      "pper": 979,
      "sell": 980,
      "problem": 981,
      "tom": 982,
      "usually": 983,
      "let": 984,
      "reviews": 985,
      "coconut": 986,
      "having": 987,
      "rown": 988,
      "teas": 989,
      "ction": 990,
      "ju": 991,
      "deal": 992,
      "til": 993,
      "excellent": 994,
      "stand": 995,
      "loved": 996,
      "dark": 997,
      "received": 998,
      "dy": 999,
      "clo": 1000,
      "ither": 1001,
      "Af": 1002,
      "ial": 1003,
      "list": 1004,
      "om": 1005,
      "spic": 1006,
      "isn": 1007,
      "stick": 1008,
      "arch": 1009,
      "cess": 1010,
      "company": 1011,
      "seems": 1012,
      "house": 1013,
      "three": 1014,
      "top": 1015,
      "nor": 1016,
      "money": 1017,
      "aila": 1018,
      "fl": 1019,
      "sub": 1020,
      "availa": 1021,
      "minut": 1022,
      "care": 1023,
      "!!!": 1024,
      "stead": 1025,
      "tak": 1026,
      "cou": 1027,
      "Re": 1028,
      "candy": 1029,
      "val": 1030,
      "cks": 1031,
      "prefer": 1032,
      "Bl": 1033,
      "cy": 1034,
      "pecially": 1035,
      "Or": 1036,
      "solute": 1037,
      "sing": 1038,
      "serving": 1039,
      "making": 1040,
      "That": 1041,
      "available": 1042,
      "fine": 1043,
      "run": 1044,
      "band": 1045,
      "until": 1046,
      "bread": 1047,
      "ries": 1048,
      "After": 1049,
      "hus": 1050,
      "roast": 1051,
      "crunch": 1052,
      "drinking": 1053,
      "place": 1054,
      "meat": 1055,
      "large": 1056,
      "Than": 1057,
      "os": 1058,
      "dd": 1059,
      "uri": 1060,
      "ST": 1061,
      "highly": 1062,
      "kids": 1063,
      "least": 1064,
      "ced": 1065,
      "call": 1066,
      "once": 1067,
      "reme": 1068,
      "AT": 1069,
      "sou": 1070,
      "rup": 1071,
      "husband": 1072,
      "ates": 1073,
      "sof": 1074,
      "such": 1075,
      "ON": 1076,
      "Gre": 1077,
      "ised": 1078,
      "arrived": 1079,
      "ings": 1080,
      "disappointed": 1081,
      "decid": 1082,
      "One": 1083,
      "satis": 1084,
      "pla": 1085,
      "especially": 1086,
      "item": 1087,
      "grain": 1088,
      "stars": 1089,
      "tun": 1090,
      "absolute": 1091,
      "ide": 1092,
      "Just": 1093,
      "exper": 1094,
      "set": 1095,
      "ption": 1096,
      "else": 1097,
      "amon": 1098,
      "THE": 1099,
      "surpr": 1100,
      "packaging": 1101,
      "must": 1102,
      "kin": 1103,
      "others": 1104,
      "decided": 1105,
      "ire": 1106,
      "rich": 1107,
      "Well": 1108,
      "gave": 1109,
      "cra": 1110,
      "either": 1111,
      "ove": 1112,
      "ea": 1113,
      "ared": 1114,
      "market": 1115,
      "variety": 1116,
      "Very": 1117,
      "instead": 1118,
      "cheese": 1119,
      "started": 1120,
      "liked": 1121,
      "beans": 1122,
      "outh": 1123,
      "vanilla": 1124,
      "Ke": 1125,
      "ago": 1126,
      "AL": 1127,
      "why": 1128,
      "nothing": 1129,
      "black": 1130,
      "wr": 1131,
      "De": 1132,
      "went": 1133,
      "medi": 1134,
      "fic": 1135,
      "Now": 1136,
      "couple": 1137,
      "powder": 1138,
      "ating": 1139,
      "seem": 1140,
      "bro": 1141,
      "week": 1142,
      "minutes": 1143,
      "search": 1144,
      "inger": 1145,
      "wanted": 1146,
      "cut": 1147,
      "turn": 1148,
      "On": 1149,
      "gl": 1150,
      "popcorn": 1151,
      "kes": 1152,
      "pet": 1153,
      "syrup": 1154,
      "pleas": 1155,
      "ary": 1156,
      "slight": 1157,
      "pac": 1158,
      "amaz": 1159,
      "extra": 1160,
      "ically": 1161,
      "ush": 1162,
      "ghter": 1163,
      "ang": 1164,
      "lie": 1165,
      "offe": 1166,
      "aren": 1167,
      "bscri": 1168,
      "mal": 1169,
      "wish": 1170,
      "ouch": 1171,
      "wasn": 1172,
      "gum": 1173,
      "ience": 1174,
      "crack": 1175,
      "boxes": 1176,
      "Also": 1177,
      "cheaper": 1178,
      "nutr": 1179,
      "clean": 1180,
      "under": 1181,
      "bur": 1182,
      "hour": 1183,
      "quickly": 1184,
      "tain": 1185,
      "All": 1186,
      "absolutely": 1187,
      "ol": 1188,
      "lad": 1189,
      "mouth": 1190,
      "50": 1191,
      "bucks": 1192,
      "mind": 1193,
      "arti": 1194,
      "took": 1195,
      "fun": 1196,
      "gif": 1197,
      "next": 1198,
      "What": 1199,
      "cons": 1200,
      "ready": 1201,
      "poon": 1202,
      "led": 1203,
      "longer": 1204,
      "recommended": 1205,
      "potato": 1206,
      "iz": 1207,
      "comple": 1208,
      "py": 1209,
      "pan": 1210,
      "tell": 1211,
      "raw": 1212,
      "yet": 1213,
      "sw": 1214,
      "energy": 1215,
      "works": 1216,
      "issu": 1217,
      "ordering": 1218,
      "cas": 1219,
      "cans": 1220,
      "color": 1221,
      "pes": 1222,
      "sour": 1223,
      "LOVE": 1224,
      "ited": 1225,
      "oat": 1226,
      "ome": 1227,
      "bak": 1228,
      "ear": 1229,
      "myself": 1230,
      "hu": 1231,
      "honey": 1232,
      "juice": 1233,
      "night": 1234,
      "pieces": 1235,
      "weight": 1236,
      "soft": 1237,
      "au": 1238,
      "conven": 1239,
      "baby": 1240,
      "Ne": 1241,
      "pay": 1242,
      "serv": 1243,
      "mag": 1244,
      "llow": 1245,
      "igh": 1246,
      "Un": 1247,
      "mis": 1248,
      "cur": 1249,
      "inclu": 1250,
      "contin": 1251,
      "etc": 1252,
      "almon": 1253,
      "however": 1254,
      "aste": 1255,
      "ia": 1256,
      "bas": 1257,
      "ding": 1258,
      "person": 1259,
      "cl": 1260,
      "IS": 1261,
      "Li": 1262,
      "ER": 1263,
      "cookie": 1264,
      "ring": 1265,
      "tee": 1266,
      "ian": 1267,
      "Wi": 1268,
      "kets": 1269,
      "astic": 1270,
      "aller": 1271,
      "ense": 1272,
      "amazing": 1273,
      "star": 1274,
      "rather": 1275,
      "og": 1276,
      "hair": 1277,
      "wa": 1278,
      "alter": 1279,
      "US": 1280,
      "gra": 1281,
      "Star": 1282,
      "hy": 1283,
      "Green": 1284,
      "anyone": 1285,
      "ump": 1286,
      "version": 1287,
      "En": 1288,
      "belie": 1289,
      "couldn": 1290,
      "tin": 1291,
      "form": 1292,
      "stant": 1293,
      "ran": 1294,
      "pound": 1295,
      "ult": 1296,
      "lef": 1297,
      "urig": 1298,
      "white": 1299,
      "bal": 1300,
      "save": 1301,
      "ient": 1302,
      "uck": 1303,
      "ying": 1304,
      "seed": 1305,
      "por": 1306,
      "likes": 1307,
      "ummy": 1308,
      "NOT": 1309,
      "pos": 1310,
      "bow": 1311,
      "descri": 1312,
      "plastic": 1313,
      "mint": 1314,
      "100": 1315,
      "body": 1316,
      "IT": 1317,
      "itional": 1318,
      "brown": 1319,
      "cus": 1320,
      "tri": 1321,
      "deli": 1322,
      "itam": 1323,
      "cour": 1324,
      "Good": 1325,
      "difference": 1326,
      "gets": 1327,
      "wheat": 1328,
      "nuts": 1329,
      "ughter": 1330,
      "breakfast": 1331,
      "glad": 1332,
      "opened": 1333,
      "gram": 1334,
      "ground": 1335,
      "innamon": 1336,
      "type": 1337,
      "gift": 1338,
      "ool": 1339,
      "ship": 1340,
      "consist": 1341,
      "resu": 1342,
      "war": 1343,
      "date": 1344,
      "OR": 1345,
      "second": 1346,
      "everything": 1347,
      "Pe": 1348,
      "00": 1349,
      "soup": 1350,
      "cold": 1351,
      "bold": 1352,
      "inal": 1353,
      "daughter": 1354,
      "alternat": 1355,
      "ted": 1356,
      "wouldn": 1357,
      "spicy": 1358,
      "Can": 1359,
      "point": 1360,
      "ask": 1361,
      "labe": 1362,
      "consi": 1363,
      "que": 1364,
      "life": 1365,
      "giving": 1366,
      "sweeten": 1367,
      "ok": 1368,
      "erky": 1369,
      "pleasant": 1370,
      "pasta": 1371,
      "problems": 1372,
      "caffe": 1373,
      "gran": 1374,
      "Tea": 1375,
      "exact": 1376,
      "pepper": 1377,
      "To": 1378,
      "ward": 1379,
      "subscri": 1380,
      "pecial": 1381,
      "Pro": 1382,
      "near": 1383,
      "Keurig": 1384,
      "cu": 1385,
      "friends": 1386,
      "lea": 1387,
      "Bo": 1388,
      "teeth": 1389,
      "Some": 1390,
      "hold": 1391,
      "port": 1392,
      "says": 1393,
      "cake": 1394,
      "maybe": 1395,
      "ben": 1396,
      "\".": 1397,
      "Mo": 1398,
      "value": 1399,
      "carry": 1400,
      "sam": 1401,
      "ween": 1402,
      "Love": 1403,
      "ina": 1404,
      "online": 1405,
      "goes": 1406,
      "mixed": 1407,
      "VER": 1408,
      "mild": 1409,
      "partic": 1410,
      "**": 1411,
      "lower": 1412,
      "inner": 1413,
      "amazon": 1414,
      "stal": 1415,
      "recent": 1416,
      "orig": 1417,
      "believe": 1418,
      "Starbucks": 1419,
      "ning": 1420,
      "allow": 1421,
      "ffect": 1422,
      "stock": 1423,
      "cor": 1424,
      "bott": 1425,
      "artific": 1426,
      "dried": 1427,
      "guess": 1428,
      "crunchy": 1429,
      "satisf": 1430,
      "Ex": 1431,
      "ta": 1432,
      "weeks": 1433,
      "fortun": 1434,
      "fish": 1435,
      "salty": 1436,
      "bed": 1437,
      "Coffee": 1438,
      "lemon": 1439,
      "spr": 1440,
      "often": 1441,
      "canned": 1442,
      "effect": 1443,
      "easily": 1444,
      "Cho": 1445,
      "Ro": 1446,
      "dro": 1447,
      "ip": 1448,
      "slightly": 1449,
      "ices": 1450,
      "caf": 1451,
      "veget": 1452,
      "tive": 1453,
      "container": 1454,
      "dish": 1455,
      "air": 1456,
      "bul": 1457,
      "oc": 1458,
      "vious": 1459,
      "OU": 1460,
      "enjoyed": 1461,
      "child": 1462,
      "close": 1463,
      "four": 1464,
      "od": 1465,
      "left": 1466,
      "coffe": 1467,
      "Our": 1468,
      "machine": 1469,
      "cooking": 1470,
      "via": 1471,
      "finish": 1472,
      "complete": 1473,
      "smaller": 1474,
      "mula": 1475,
      "Di": 1476,
      "pup": 1477,
      "seal": 1478,
      "rible": 1479,
      "mine": 1480,
      "simil": 1481,
      "artificial": 1482,
      "season": 1483,
      "With": 1484,
      "Don": 1485,
      "drinks": 1486,
      "aro": 1487,
      "benef": 1488,
      "process": 1489,
      "gener": 1490,
      "soy": 1491,
      "haven": 1492,
      "jerky": 1493,
      "thick": 1494,
      "particular": 1495,
      "course": 1496,
      "switch": 1497,
      "tot": 1498,
      "similar": 1499,
      "30": 1500,
      "ative": 1501,
      "dium": 1502,
      "mber": 1503,
      "certain": 1504,
      "New": 1505,
      "oose": 1506,
      "presso": 1507,
      "subst": 1508,
      "plain": 1509,
      "press": 1510,
      "tend": 1511,
      "special": 1512,
      "beef": 1513,
      "wra": 1514,
      "ath": 1515,
      "fr": 1516,
      "bowl": 1517,
      "snacks": 1518,
      "fig": 1519,
      "nood": 1520,
      "alternative": 1521,
      "ingredient": 1522,
      "vered": 1523,
      "ginger": 1524,
      "hop": 1525,
      "allerg": 1526,
      "non": 1527,
      "mm": 1528,
      "weak": 1529,
      "AND": 1530,
      "At": 1531,
      "cannot": 1532,
      "dire": 1533,
      "ctions": 1534,
      "single": 1535,
      "coa": 1536,
      "ouble": 1537,
      "Even": 1538,
      "aftertaste": 1539,
      "fair": 1540,
      "covered": 1541,
      "wife": 1542,
      "15": 1543,
      "consider": 1544,
      "indi": 1545,
      "stomach": 1546,
      "change": 1547,
      "esome": 1548,
      "between": 1549,
      "cinnamon": 1550,
      "comb": 1551,
      "coffees": 1552,
      "surprised": 1553,
      "sometimes": 1554,
      "saw": 1555,
      "aroma": 1556,
      "formula": 1557,
      "fiber": 1558,
      "pleased": 1559,
      ":)": 1560,
      "Su": 1561,
      "jar": 1562,
      "flour": 1563,
      "stay": 1564,
      "Nat": 1565,
      "sum": 1566,
      "due": 1567,
      "cheap": 1568,
      "lled": 1569,
      "recipe": 1570,
      "wait": 1571,
      "sen": 1572,
      "count": 1573,
      "ons": 1574,
      ".)": 1575,
      "apple": 1576,
      "ball": 1577,
      "exc": 1578,
      "compla": 1579,
      "ute": 1580,
      "ables": 1581,
      "ING": 1582,
      "zz": 1583,
      "vet": 1584,
      ".\"": 1585,
      "mess": 1586,
      "daily": 1587,
      "hor": 1588,
      "ations": 1589,
      "fied": 1590,
      "sugg": 1591,
      "kit": 1592,
      "exactly": 1593,
      "cris": 1594,
      "ola": 1595,
      "hours": 1596,
      "par": 1597,
      "Che": 1598,
      "itself": 1599,
      "feeding": 1600,
      "ured": 1601,
      "wrong": 1602,
      "picky": 1603,
      "hope": 1604,
      "expected": 1605,
      "caffeine": 1606,
      "experience": 1607,
      "fully": 1608,
      "atter": 1609,
      "main": 1610,
      "ffic": 1611,
      "AR": 1612,
      "crackers": 1613,
      "berries": 1614,
      "ency": 1615,
      "ounce": 1616,
      "plus": 1617,
      "vidu": 1618,
      "choice": 1619,
      "soon": 1620,
      "pic": 1621,
      "Since": 1622,
      "mit": 1623,
      "pri": 1624,
      "mic": 1625,
      "although": 1626,
      "LE": 1627,
      "everyone": 1628,
      "ys": 1629,
      "packs": 1630,
      "ress": 1631,
      "addic": 1632,
      "already": 1633,
      "option": 1634,
      "ory": 1635,
      "spe": 1636,
      "condition": 1637,
      "noticed": 1638,
      "ird": 1639,
      "lunch": 1640,
      "ives": 1641,
      "flavorful": 1642,
      "inside": 1643,
      "Organic": 1644,
      "met": 1645,
      "possi": 1646,
      "ling": 1647,
      "individu": 1648,
      "during": 1649,
      "fortunately": 1650,
      "Pl": 1651,
      "instant": 1652,
      "alk": 1653,
      "inte": 1654,
      "bite": 1655,
      "throw": 1656,
      "pods": 1657,
      "looked": 1658,
      "vent": 1659,
      "res": 1660,
      "smells": 1661,
      "LY": 1662,
      "recently": 1663,
      "Whi": 1664,
      "High": 1665,
      "OO": 1666,
      "along": 1667,
      "Then": 1668,
      "idea": 1669,
      "acid": 1670,
      "packaged": 1671,
      "looks": 1672,
      "Thank": 1673,
      "zed": 1674,
      "power": 1675,
      "tly": 1676,
      "needed": 1677,
      "ban": 1678,
      "blue": 1679,
      "contains": 1680,
      "chip": 1681,
      "gone": 1682,
      "convenient": 1683,
      "done": 1684,
      "!!!!": 1685,
      "bon": 1686,
      "check": 1687,
      "inter": 1688,
      "mas": 1689,
      "test": 1690,
      "entire": 1691,
      "BE": 1692,
      "IC": 1693,
      "dge": 1694,
      "egg": 1695,
      "key": 1696,
      "moist": 1697,
      "helps": 1698,
      "yummy": 1699,
      "While": 1700,
      "awesome": 1701,
      "asing": 1702,
      "skin": 1703,
      "compared": 1704,
      "mention": 1705,
      "oatmeal": 1706,
      "sodium": 1707,
      "spice": 1708,
      "Thanks": 1709,
      "sitive": 1710,
      "service": 1711,
      "someone": 1712,
      "continue": 1713,
      "larger": 1714,
      "salad": 1715,
      "gn": 1716,
      "simp": 1717,
      "extreme": 1718,
      "later": 1719,
      "show": 1720,
      "wise": 1721,
      "ded": 1722,
      "vitam": 1723,
      "ges": 1724,
      "leave": 1725,
      "AS": 1726,
      "cocoa": 1727,
      "head": 1728,
      "huge": 1729,
      "combin": 1730,
      "simply": 1731,
      "ED": 1732,
      "ino": 1733,
      "bulk": 1734,
      "chang": 1735,
      "based": 1736,
      "interest": 1737,
      "adding": 1738,
      "plan": 1739,
      "zy": 1740,
      "May": 1741,
      "delivery": 1742,
      "seeds": 1743,
      "iness": 1744,
      "soda": 1745,
      "Cup": 1746,
      "ants": 1747,
      "Do": 1748,
      "calorie": 1749,
      "liqu": 1750,
      "tastic": 1751,
      "cla": 1752,
      "11": 1753,
      "hun": 1754,
      "leaves": 1755,
      "inion": 1756,
      "glass": 1757,
      "completely": 1758,
      "Chi": 1759,
      "bottles": 1760,
      "needs": 1761,
      "name": 1762,
      "decaf": 1763,
      "pure": 1764,
      "opinion": 1765,
      "plac": 1766,
      "bly": 1767,
      "maker": 1768,
      "takes": 1769,
      "uses": 1770,
      "sle": 1771,
      "EN": 1772,
      "filling": 1773,
      "happen": 1774,
      "noodles": 1775,
      "eaten": 1776,
      "ments": 1777,
      "ley": 1778,
      "given": 1779,
      "follow": 1780,
      "Food": 1781,
      "lts": 1782,
      "train": 1783,
      "Every": 1784,
      "pouch": 1785,
      "medium": 1786,
      "osed": 1787,
      "coun": 1788,
      "issues": 1789,
      "tru": 1790,
      "pill": 1791,
      "urt": 1792,
      "Blue": 1793,
      "dri": 1794,
      "called": 1795,
      "ob": 1796,
      "verage": 1797,
      "suggest": 1798,
      "batch": 1799,
      "gives": 1800,
      "excited": 1801,
      "grams": 1802,
      "original": 1803,
      "yes": 1804,
      "chem": 1805,
      "espresso": 1806,
      "char": 1807,
      "door": 1808,
      "healthier": 1809,
      "notice": 1810,
      "waste": 1811,
      "ites": 1812,
      "normal": 1813,
      "Over": 1814,
      "cher": 1815,
      "cakes": 1816,
      "ual": 1817,
      "label": 1818,
      "dent": 1819,
      "sold": 1820,
      "ines": 1821,
      "gether": 1822,
      "ES": 1823,
      "ats": 1824,
      "Chocolate": 1825,
      "told": 1826,
      "sent": 1827,
      "sed": 1828,
      "diffic": 1829,
      "shipped": 1830,
      "doing": 1831,
      "ler": 1832,
      "short": 1833,
      "clear": 1834,
      "substit": 1835,
      "together": 1836,
      "zer": 1837,
      "sor": 1838,
      "lid": 1839,
      "ana": 1840,
      "16": 1841,
      "bble": 1842,
      "turned": 1843,
      "till": 1844,
      "rench": 1845,
      "lots": 1846,
      "hint": 1847,
      "seemed": 1848,
      "taking": 1849,
      "chewy": 1850,
      "tract": 1851,
      "items": 1852,
      "extremely": 1853,
      "24": 1854,
      "packets": 1855,
      "packet": 1856,
      "fantastic": 1857,
      "amy": 1858,
      "content": 1859,
      "twice": 1860,
      "na": 1861,
      "sim": 1862,
      "Per": 1863,
      "requ": 1864,
      "ki": 1865,
      "lves": 1866,
      "eats": 1867,
      "num": 1868,
      "ican": 1869,
      "French": 1870,
      "replace": 1871,
      "watch": 1872,
      "CH": 1873,
      "sweetness": 1874,
      "room": 1875,
      "packages": 1876,
      "kept": 1877,
      "Se": 1878,
      "leve": 1879,
      "import": 1880,
      "liquid": 1881,
      "orange": 1882,
      "ny": 1883,
      "har": 1884,
      "true": 1885,
      "Ear": 1886,
      "ended": 1887,
      "heart": 1888,
      "als": 1889,
      "certainly": 1890,
      "crum": 1891,
      "ken": 1892,
      "Will": 1893,
      "prep": 1894,
      "research": 1895,
      "rist": 1896,
      "Highly": 1897,
      "ade": 1898,
      "ountain": 1899,
      "eps": 1900,
      "vers": 1901,
      "Wellness": 1902,
      "chemical": 1903,
      "five": 1904,
      "ris": 1905,
      "mally": 1906,
      "aid": 1907,
      "granola": 1908,
      "stru": 1909,
      "seen": 1910,
      "stop": 1911,
      "??": 1912,
      "straw": 1913,
      "loc": 1914,
      "purchasing": 1915,
      "return": 1916,
      "custo": 1917,
      "consu": 1918,
      "refresh": 1919,
      "First": 1920,
      "bottom": 1921,
      "Mar": 1922,
      "immedi": 1923,
      "zel": 1924,
      "offer": 1925,
      "ristmas": 1926,
      "vis": 1927,
      "livered": 1928,
      "Nut": 1929,
      "ides": 1930,
      "manu": 1931,
      "vegg": 1932,
      "asy": 1933,
      "TO": 1934,
      "easier": 1935,
      "AM": 1936,
      "ton": 1937,
      "bis": 1938,
      "gain": 1939,
      "almonds": 1940,
      "addition": 1941,
      "pressed": 1942,
      "reading": 1943,
      "lb": 1944,
      "dinner": 1945,
      "cooked": 1946,
      "bi": 1947,
      "difficult": 1948,
      "inegar": 1949,
      "puppy": 1950,
      "benefits": 1951,
      "smo": 1952,
      "possible": 1953,
      "sale": 1954,
      "UT": 1955,
      "Who": 1956,
      "within": 1957,
      "decent": 1958,
      "oid": 1959,
      "hit": 1960,
      "yourself": 1961,
      "orice": 1962,
      "finally": 1963,
      "thin": 1964,
      "matter": 1965,
      "baking": 1966,
      "mail": 1967,
      "manufact": 1968,
      "dia": 1969,
      "ending": 1970,
      "become": 1971,
      "microw": 1972,
      "concer": 1973,
      "SO": 1974,
      "varieties": 1975,
      "lear": 1976,
      "pal": 1977,
      "delivered": 1978,
      "mean": 1979,
      "consistency": 1980,
      "----": 1981,
      "rel": 1982,
      "ses": 1983,
      "pump": 1984,
      "world": 1985,
      "25": 1986,
      "sc": 1987,
      "fil": 1988,
      "cha": 1989,
      "priced": 1990,
      "stopped": 1991,
      "appe": 1992,
      "Bre": 1993,
      "packed": 1994,
      "Le": 1995,
      "ably": 1996,
      "Unfortunately": 1997,
      "Red": 1998,
      "piece": 1999,
      "wn": 2000,
      "nutrition": 2001,
      "heav": 2002,
      "results": 2003,
      "trans": 2004,
      "rate": 2005,
      "Try": 2006,
      "lect": 2007,
      "today": 2008,
      "touch": 2009,
      "loose": 2010,
      "casion": 2011,
      "att": 2012,
      "Christmas": 2013,
      "atever": 2014,
      "CO": 2015,
      "supposed": 2016,
      "VERY": 2017,
      "Mi": 2018,
      "sho": 2019,
      "Best": 2020,
      "amel": 2021,
      "roll": 2022,
      "ific": 2023,
      "sweetener": 2024,
      "compar": 2025,
      "serve": 2026,
      "tomato": 2027,
      "Overall": 2028,
      "broken": 2029,
      "keeps": 2030,
      "worked": 2031,
      "40": 2032,
      "creamy": 2033,
      "coming": 2034,
      "Maybe": 2035,
      "action": 2036,
      "ters": 2037,
      "Natural": 2038,
      "hydr": 2039,
      "aur": 2040,
      "!)": 2041,
      "immediately": 2042,
      "Bu": 2043,
      "discovered": 2044,
      "anymore": 2045,
      "truly": 2046,
      "description": 2047,
      "usual": 2048,
      "refreshing": 2049,
      "means": 2050,
      "board": 2051,
      "impro": 2052,
      "bus": 2053,
      "warm": 2054,
      "burn": 2055,
      "unk": 2056,
      "hai": 2057,
      "occasion": 2058,
      "complaint": 2059,
      "Cal": 2060,
      "brewed": 2061,
      "doll": 2062,
      "toy": 2063,
      "felt": 2064,
      "creat": 2065,
      "tiny": 2066,
      "kick": 2067,
      "Any": 2068,
      "anti": 2069,
      "webs": 2070,
      "table": 2071,
      "ulti": 2072,
      "onest": 2073,
      "training": 2074,
      "stale": 2075,
      "Ha": 2076,
      "hum": 2077,
      "Its": 2078,
      "issue": 2079,
      "subscribe": 2080,
      "ently": 2081,
      "avoid": 2082,
      "zen": 2083,
      "grow": 2084,
      "Chicken": 2085,
      "aut": 2086,
      "haps": 2087,
      "Gr": 2088,
      "beat": 2089,
      "claim": 2090,
      "sty": 2091,
      "Roast": 2092,
      "blood": 2093,
      "sick": 2094,
      "normally": 2095,
      "uc": 2096,
      "Ital": 2097,
      "important": 2098,
      "Tr": 2099,
      "customer": 2100,
      "portion": 2101,
      "vert": 2102,
      "including": 2103,
      "remember": 2104,
      "RO": 2105,
      "wet": 2106,
      "recipes": 2107,
      "seller": 2108,
      "baked": 2109,
      "Although": 2110,
      "Other": 2111,
      "atte": 2112,
      "bean": 2113,
      "six": 2114,
      "bland": 2115,
      "thinking": 2116,
      "ross": 2117,
      "viously": 2118,
      "area": 2119,
      "typ": 2120,
      "whatever": 2121,
      "mg": 2122,
      "satisfying": 2123,
      "sch": 2124,
      "spoon": 2125,
      "ingly": 2126,
      "agree": 2127,
      "boo": 2128,
      "locally": 2129,
      "Diet": 2130,
      "spices": 2131,
      "ner": 2132,
      "rit": 2133,
      "bring": 2134,
      "ond": 2135,
      "higher": 2136,
      "Sal": 2137,
      "substitute": 2138,
      "sand": 2139,
      "shop": 2140,
      "delight": 2141,
      "ream": 2142,
      "pour": 2143,
      "yog": 2144,
      "ium": 2145,
      "olive": 2146,
      "ped": 2147,
      "combination": 2148,
      "shipment": 2149,
      "ired": 2150,
      "itchen": 2151,
      "Mountain": 2152,
      "hea": 2153,
      "feeling": 2154,
      "emp": 2155,
      "microwave": 2156,
      "sea": 2157,
      "Yes": 2158,
      "unless": 2159,
      "Tast": 2160,
      "99": 2161,
      "stronger": 2162,
      "anywhere": 2163,
      "ature": 2164,
      "remind": 2165,
      "sweetened": 2166,
      "sort": 2167,
      "boil": 2168,
      "ert": 2169,
      "lack": 2170,
      "simple": 2171,
      "match": 2172,
      "safe": 2173,
      "pod": 2174,
      "ret": 2175,
      "asp": 2176,
      "source": 2177,
      "contro": 2178,
      "lick": 2179,
      "va": 2180,
      "appro": 2181,
      "none": 2182,
      "website": 2183,
      "ref": 2184,
      "ior": 2185,
      "ug": 2186,
      "sleep": 2187,
      "changed": 2188,
      "Amer": 2189,
      "fall": 2190,
      "licorice": 2191,
      "craving": 2192,
      "reasonable": 2193,
      "gest": 2194,
      "enty": 2195,
      "restaur": 2196,
      "standard": 2197,
      "Stash": 2198,
      "card": 2199,
      "nearly": 2200,
      "totally": 2201,
      "finding": 2202,
      "melt": 2203,
      "\",": 2204,
      "Tw": 2205,
      "Of": 2206,
      "ni": 2207,
      "perfectly": 2208,
      "rilled": 2209,
      "ooked": 2210,
      "picture": 2211,
      "ize": 2212,
      "post": 2213,
      "ME": 2214,
      "mb": 2215,
      "fit": 2216,
      "bones": 2217,
      "vinegar": 2218,
      "Pop": 2219,
      "allergies": 2220,
      "crazy": 2221,
      "supple": 2222,
      "redu": 2223,
      "ions": 2224,
      "quant": 2225,
      "yogurt": 2226,
      "trave": 2227,
      "THIS": 2228,
      "king": 2229,
      "squ": 2230,
      "lor": 2231,
      "somewhat": 2232,
      "mostly": 2233,
      "Most": 2234,
      "tart": 2235,
      "Pet": 2236,
      "fut": 2237,
      "satisfied": 2238,
      "soo": 2239,
      "bits": 2240,
      "seasoning": 2241,
      "Wal": 2242,
      "Fla": 2243,
      "uni": 2244,
      "ulous": 2245,
      "Newman": 2246,
      "je": 2247,
      "expecting": 2248,
      "ank": 2249,
      "Sp": 2250,
      "sound": 2251,
      "beg": 2252,
      "future": 2253,
      "note": 2254,
      "incre": 2255,
      "whe": 2256,
      "direct": 2257,
      "waf": 2258,
      "impressed": 2259,
      "HA": 2260,
      "prices": 2261,
      "children": 2262,
      "Car": 2263,
      "stra": 2264,
      "Plus": 2265,
      "reviewers": 2266,
      "OK": 2267,
      "imal": 2268,
      "brewing": 2269,
      "hoping": 2270,
      "drinker": 2271,
      "tuna": 2272,
      "ked": 2273,
      "pricey": 2274,
      "garlic": 2275,
      "ming": 2276,
      ".....": 2277,
      "inally": 2278,
      "mixes": 2279,
      "individual": 2280,
      "trad": 2281,
      "medic": 2282,
      "ison": 2283,
      "listed": 2284,
      "diabet": 2285,
      "vour": 2286,
      "gas": 2287,
      "forward": 2288,
      "atic": 2289,
      "Vanilla": 2290,
      "heavy": 2291,
      "var": 2292,
      "chewing": 2293,
      "syste": 2294,
      "supermarket": 2295,
      "horrible": 2296,
      "reviewer": 2297,
      "MO": 2298,
      "land": 2299,
      "appreci": 2300,
      "hooked": 2301,
      "chili": 2302,
      "refri": 2303,
      "dep": 2304,
      "number": 2305,
      "iful": 2306,
      "mart": 2307,
      "except": 2308,
      "ined": 2309,
      "mom": 2310,
      "diges": 2311,
      "toast": 2312,
      "hate": 2313,
      "cool": 2314,
      "Like": 2315,
      "rid": 2316,
      "advert": 2317,
      "tail": 2318,
      "wich": 2319,
      "pen": 2320,
      "pass": 2321,
      "fairly": 2322,
      "chun": 2323,
      "det": 2324,
      "meals": 2325,
      "scr": 2326,
      "stir": 2327,
      "veggies": 2328,
      "ub": 2329,
      "straight": 2330,
      "gen": 2331,
      "favorites": 2332,
      "almond": 2333,
      "nutritional": 2334,
      "prov": 2335,
      "flavoring": 2336,
      "sol": 2337,
      "carb": 2338,
      "zelnut": 2339,
      "remo": 2340,
      "awful": 2341,
      "oop": 2342,
      "types": 2343,
      "known": 2344,
      "instru": 2345,
      "carbs": 2346,
      "hands": 2347,
      "sealed": 2348,
      "noon": 2349,
      "beaut": 2350,
      "manufacture": 2351,
      "elly": 2352,
      "okay": 2353,
      "bac": 2354,
      "ors": 2355,
      "compare": 2356,
      "lim": 2357,
      "cover": 2358,
      "convenience": 2359,
      "overpower": 2360,
      "paper": 2361,
      "Exce": 2362,
      "overall": 2363,
      "bone": 2364,
      "18": 2365,
      "sticks": 2366,
      "Cost": 2367,
      "terrible": 2368,
      "switched": 2369,
      "lbs": 2370,
      "pounds": 2371,
      "summer": 2372,
      "grains": 2373,
      "paid": 2374,
      "LL": 2375,
      "Blend": 2376,
      "mium": 2377,
      "nes": 2378,
      "Would": 2379,
      "proper": 2380,
      "mother": 2381,
      "dress": 2382,
      "sandwich": 2383,
      "DA": 2384,
      "arely": 2385,
      "knew": 2386,
      "sized": 2387,
      "refriger": 2388,
      "job": 2389,
      "UP": 2390,
      "lity": 2391,
      "sitting": 2392,
      "wrapped": 2393,
      "ages": 2394,
      "sign": 2395,
      "office": 2396,
      "Me": 2397,
      "Black": 2398,
      "vitamins": 2399,
      "dar": 2400,
      "sensitive": 2401,
      "Con": 2402,
      "caramel": 2403,
      "DO": 2404,
      "Add": 2405,
      "pain": 2406,
      "heard": 2407,
      "ister": 2408,
      "Dog": 2409,
      "Ste": 2410,
      "alone": 2411,
      "kitchen": 2412,
      "estion": 2413,
      "control": 2414,
      "subtle": 2415,
      "please": 2416,
      "fur": 2417,
      "ounces": 2418,
      "Wor": 2419,
      "understand": 2420,
      "13": 2421,
      "imag": 2422,
      "sampl": 2423,
      "system": 2424,
      "expir": 2425,
      "Taste": 2426,
      "actual": 2427,
      "honest": 2428,
      "roasted": 2429,
      "Sweet": 2430,
      "Dark": 2431,
      "ized": 2432,
      "filled": 2433,
      "neg": 2434,
      "thy": 2435,
      "China": 2436,
      "net": 2437,
      "Free": 2438,
      "shot": 2439,
      "running": 2440,
      "result": 2441,
      "cience": 2442,
      "style": 2443,
      "steep": 2444,
      "afternoon": 2445,
      "fed": 2446,
      "Dr": 2447,
      "alo": 2448,
      "ford": 2449,
      "pric": 2450,
      "face": 2451,
      "continu": 2452,
      "shelf": 2453,
      "outside": 2454,
      "vide": 2455,
      "gry": 2456,
      "ph": 2457,
      "Almon": 2458,
      "inch": 2459,
      "figured": 2460,
      "dess": 2461,
      "salmon": 2462,
      "mush": 2463,
      "total": 2464,
      "60": 2465,
      "anyway": 2466,
      "aspberry": 2467,
      "Go": 2468,
      "rating": 2469,
      "amp": 2470,
      "plant": 2471,
      "cap": 2472,
      "Ti": 2473,
      "pread": 2474,
      "overly": 2475,
      "abi": 2476,
      "extract": 2477,
      "cept": 2478,
      "ham": 2479,
      "Ar": 2480,
      "lost": 2481,
      "sprink": 2482,
      "dou": 2483,
      "crisp": 2484,
      "Engl": 2485,
      "present": 2486,
      "flo": 2487,
      "sample": 2488,
      "Bar": 2489,
      "enda": 2490,
      "gotten": 2491,
      "send": 2492,
      "grind": 2493,
      "adv": 2494,
      "vegetables": 2495,
      "Each": 2496,
      "beautiful": 2497,
      "incredi": 2498,
      "terri": 2499,
      "pumpkin": 2500,
      "wash": 2501,
      "supply": 2502,
      "Italian": 2503,
      "ox": 2504,
      "putting": 2505,
      "BB": 2506,
      "multi": 2507,
      "Qu": 2508,
      "DE": 2509,
      "replacement": 2510,
      "CT": 2511,
      "subscription": 2512,
      "served": 2513,
      "ible": 2514,
      "homemade": 2515,
      "Foods": 2516,
      "Oh": 2517,
      "GRE": 2518,
      "iously": 2519,
      "pu": 2520,
      "whel": 2521,
      "Only": 2522,
      "io": 2523,
      "meas": 2524,
      "manufacturer": 2525,
      "vend": 2526,
      "working": 2527,
      "resp": 2528,
      "worry": 2529,
      "scent": 2530,
      "curren": 2531,
      "grand": 2532,
      "em": 2533,
      "Both": 2534,
      "stuck": 2535,
      "expiration": 2536,
      "opening": 2537,
      "shape": 2538,
      "play": 2539,
      "AST": 2540,
      "chai": 2541,
      "gir": 2542,
      "weird": 2543,
      "died": 2544,
      "Whole": 2545,
      "coat": 2546,
      "Ce": 2547,
      "servings": 2548,
      "inform": 2549,
      "plenda": 2550,
      "chews": 2551,
      "mist": 2552,
      "ware": 2553,
      "14": 2554,
      "Save": 2555,
      "liter": 2556,
      "nesium": 2557,
      "fir": 2558,
      "atives": 2559,
      "biscu": 2560,
      "ourmet": 2561,
      "Excellent": 2562,
      "ablespoon": 2563,
      "plenty": 2564,
      "instructions": 2565,
      "double": 2566,
      "Cr": 2567,
      "various": 2568,
      "mac": 2569,
      "luck": 2570,
      "across": 2571,
      "level": 2572,
      "rais": 2573,
      "prom": 2574,
      "round": 2575,
      "helped": 2576,
      "afford": 2577,
      "spread": 2578,
      "Ger": 2579,
      "sk": 2580,
      "placed": 2581,
      "ws": 2582,
      "jars": 2583,
      "Sup": 2584,
      "offered": 2585,
      "eggs": 2586,
      "fix": 2587,
      "bor": 2588,
      "dont": 2589,
      "Ma": 2590,
      "ator": 2591,
      "poor": 2592,
      "mpoo": 2593,
      "ially": 2594,
      "selves": 2595,
      "adds": 2596,
      "mentioned": 2597,
      "strawberry": 2598,
      "ities": 2599,
      "slow": 2600,
      "quee": 2601,
      "processed": 2602,
      "directions": 2603,
      "asked": 2604,
      "everyday": 2605,
      "Cups": 2606,
      "pull": 2607,
      "kinds": 2608,
      "bled": 2609,
      "saying": 2610,
      "likely": 2611,
      "tic": 2612,
      "fu": 2613,
      "sun": 2614,
      "overpowering": 2615,
      "Once": 2616,
      "banana": 2617,
      "duct": 2618,
      "poc": 2619,
      "SE": 2620,
      "tooth": 2621,
      "mel": 2622,
      "tem": 2623,
      "teaspoon": 2624,
      "tose": 2625,
      "peanuts": 2626,
      "admit": 2627,
      "potatoes": 2628,
      "hungry": 2629,
      "velo": 2630,
      "Pack": 2631,
      "thank": 2632,
      "spec": 2633,
      "lime": 2634,
      "Grey": 2635,
      "iting": 2636,
      "gth": 2637,
      "overwhel": 2638,
      "nicely": 2639,
      "Mix": 2640,
      "unique": 2641,
      "Jo": 2642,
      "ker": 2643,
      "surprise": 2644,
      "lease": 2645,
      "akes": 2646,
      "chance": 2647,
      "trouble": 2648,
      "brought": 2649,
      "YOU": 2650,
      "vir": 2651,
      "izz": 2652,
      "Pur": 2653,
      "bles": 2654,
      "asty": 2655,
      "share": 2656,
      "bitterness": 2657,
      "ien": 2658,
      "preserv": 2659,
      "aking": 2660,
      "cherry": 2661,
      "grab": 2662,
      "youn": 2663,
      "sauces": 2664,
      "enter": 2665,
      "wel": 2666,
      "tablespoon": 2667,
      "fridge": 2668,
      "drank": 2669,
      "zels": 2670,
      "rect": 2671,
      "shake": 2672,
      "amond": 2673,
      "load": 2674,
      "site": 2675,
      "By": 2676,
      "jor": 2677,
      "shampoo": 2678,
      "chocol": 2679,
      "boost": 2680,
      "kibble": 2681,
      "Earl": 2682,
      "mixing": 2683,
      "assi": 2684,
      "beverage": 2685,
      "dishes": 2686,
      "ida": 2687,
      "careful": 2688,
      "HE": 2689,
      "draw": 2690,
      "information": 2691,
      "chunks": 2692,
      "eater": 2693,
      "bir": 2694,
      "mini": 2695,
      "require": 2696,
      "mile": 2697,
      "boy": 2698,
      "costs": 2699,
      "perhaps": 2700,
      "mus": 2701,
      "ont": 2702,
      "oats": 2703,
      "wine": 2704,
      "book": 2705,
      "necess": 2706,
      "negative": 2707,
      "wal": 2708,
      "candies": 2709,
      "OOD": 2710,
      "HO": 2711,
      "dust": 2712,
      "ties": 2713,
      "Vitam": 2714,
      "concent": 2715,
      "feren": 2716,
      "ica": 2717,
      "worst": 2718,
      "ease": 2719,
      "ado": 2720,
      "base": 2721,
      "carrying": 2722,
      "bunch": 2723,
      "buds": 2724,
      "selling": 2725,
      "supplement": 2726,
      "bes": 2727,
      "anced": 2728,
      "Salt": 2729,
      "OF": 2730,
      "bigger": 2731,
      "crispy": 2732,
      "App": 2733,
      "lead": 2734,
      "ona": 2735,
      "older": 2736,
      "balance": 2737,
      "thrilled": 2738,
      "WI": 2739,
      "oils": 2740,
      "breath": 2741,
      "traditional": 2742,
      "Costco": 2743,
      "GREAT": 2744,
      "Fro": 2745,
      "quantity": 2746,
      "mug": 2747,
      "19": 2748,
      "setting": 2749,
      "junk": 2750,
      "active": 2751,
      "lose": 2752,
      "WE": 2753,
      "major": 2754,
      "nasty": 2755,
      "unlike": 2756,
      "FOR": 2757,
      ":-": 2758,
      "spect": 2759,
      "ppers": 2760,
      "vegan": 2761,
      "Pri": 2762,
      "personal": 2763,
      "Science": 2764,
      "rated": 2765,
      "ster": 2766,
      "Have": 2767,
      "ALL": 2768,
      "lif": 2769,
      "became": 2770,
      "Butter": 2771,
      "allergic": 2772,
      "Product": 2773,
      "above": 2774,
      "class": 2775,
      "iment": 2776,
      "frozen": 2777,
      "IG": 2778,
      "restaurant": 2779,
      "BBQ": 2780,
      "lives": 2781,
      "rodu": 2782,
      "lax": 2783,
      "flow": 2784,
      "generally": 2785,
      "paste": 2786,
      "equ": 2787,
      "paying": 2788,
      "pretzels": 2789,
      "ged": 2790,
      "Ser": 2791,
      "ET": 2792,
      "blends": 2793,
      "BUT": 2794,
      "average": 2795,
      "enseo": 2796,
      "freeze": 2797,
      "included": 2798,
      "Mag": 2799,
      "tired": 2800,
      "lock": 2801,
      "MY": 2802,
      "otherwise": 2803,
      "arian": 2804,
      "Nice": 2805,
      "school": 2806,
      "solid": 2807,
      "liver": 2808,
      "slic": 2809,
      "worse": 2810,
      "basically": 2811,
      "stevia": 2812,
      "hes": 2813,
      "squee": 2814,
      "UM": 2815,
      "vy": 2816,
      "conds": 2817,
      "rew": 2818,
      "introdu": 2819,
      "walk": 2820,
      "iry": 2821,
      "smelled": 2822,
      "picked": 2823,
      "bust": 2824,
      "200": 2825,
      "sweeteners": 2826,
      "desig": 2827,
      "litter": 2828,
      "seconds": 2829,
      "Enjoy": 2830,
      "respon": 2831,
      "compan": 2832,
      "ied": 2833,
      "lover": 2834,
      "ics": 2835,
      "tan": 2836,
      "ends": 2837,
      "AY": 2838,
      "trust": 2839,
      "effects": 2840,
      "Tastes": 2841,
      "concerned": 2842,
      "ddle": 2843,
      "init": 2844,
      "fort": 2845,
      "Honey": 2846,
      "American": 2847,
      "dessert": 2848,
      "pleasantly": 2849,
      "scratch": 2850,
      "whether": 2851,
      "figure": 2852,
      "ita": 2853,
      "ga": 2854,
      "promp": 2855,
      "evening": 2856,
      "Gold": 2857,
      "separ": 2858,
      "80": 2859,
      "ili": 2860,
      "stri": 2861,
      "odor": 2862,
      "contact": 2863,
      "ava": 2864,
      "Subscri": 2865,
      "Still": 2866,
      "stoo": 2867,
      "rub": 2868,
      "Man": 2869,
      "yellow": 2870,
      "peach": 2871,
      "Break": 2872,
      "stren": 2873,
      "Is": 2874,
      "receive": 2875,
      "NE": 2876,
      "themselves": 2877,
      "GF": 2878,
      "vitamin": 2879,
      "exception": 2880,
      "pizz": 2881,
      "saving": 2882,
      "state": 2883,
      "doub": 2884,
      "appreciate": 2885,
      "Up": 2886,
      "Definitely": 2887,
      "pancakes": 2888,
      "third": 2889,
      "Diamond": 2890,
      "spot": 2891,
      "dollars": 2892,
      "PB": 2893,
      "addicted": 2894,
      "Why": 2895,
      "party": 2896,
      "70": 2897,
      "dairy": 2898,
      "general": 2899,
      "ucc": 2900,
      "apart": 2901,
      "realize": 2902,
      "particularly": 2903,
      "suc": 2904,
      "interesting": 2905,
      "imagine": 2906,
      "ini": 2907,
      "fus": 2908,
      "........": 2909,
      "late": 2910,
      "creamer": 2911,
      "itr": 2912,
      "flower": 2913,
      "trick": 2914,
      "individually": 2915,
      "remain": 2916,
      "carbon": 2917,
      "trip": 2918,
      "dressing": 2919,
      "FE": 2920,
      "rope": 2921,
      "counter": 2922,
      "assu": 2923,
      "matcha": 2924,
      "leaf": 2925,
      "mid": 2926,
      "Subscribe": 2927,
      "gold": 2928,
      "previous": 2929,
      "deep": 2930,
      "provide": 2931,
      "premium": 2932,
      "opp": 2933,
      "upon": 2934,
      "ens": 2935,
      "Chai": 2936,
      "Because": 2937,
      "prepare": 2938,
      "pouches": 2939,
      "LOVES": 2940,
      "Her": 2941,
      "Was": 2942,
      "Breakfast": 2943,
      "Bet": 2944,
      "talk": 2945,
      "wants": 2946,
      "arr": 2947,
      "appeal": 2948,
      "iled": 2949,
      "empty": 2950,
      "lli": 2951,
      "USA": 2952,
      "maple": 2953,
      "defin": 2954,
      "keeping": 2955,
      "cording": 2956,
      "positive": 2957,
      "scal": 2958,
      "ging": 2959,
      "comment": 2960,
      "Vitamin": 2961,
      "gs": 2962,
      "considering": 2963,
      "bill": 2964,
      "Senseo": 2965,
      "greasy": 2966,
      "Fe": 2967,
      "imp": 2968,
      "odd": 2969,
      "frag": 2970,
      "spend": 2971,
      "middle": 2972,
      "lection": 2973,
      "guil": 2974,
      "hesit": 2975,
      "Splenda": 2976,
      "Sugar": 2977,
      "improve": 2978,
      "cases": 2979,
      "Perfect": 2980,
      "Really": 2981,
      "cardboard": 2982,
      "threw": 2983,
      "lay": 2984,
      "Ori": 2985,
      "LI": 2986,
      "gars": 2987,
      "human": 2988,
      "ATE": 2989,
      "containers": 2990,
      "frequ": 2991,
      "enjoying": 2992,
      "finished": 2993,
      "Please": 2994,
      "breast": 2995,
      "soups": 2996,
      "cents": 2997,
      "ffin": 2998,
      "nutty": 2999,
      "nutrit": 3000,
      "typical": 3001,
      "ject": 3002,
      "ils": 3003,
      "flat": 3004,
      "pantry": 3005,
      "sip": 3006,
      "directly": 3007,
      "rot": 3008,
      "How": 3009,
      "sticky": 3010,
      ",\"": 3011,
      "front": 3012,
      "cing": 3013,
      "thus": 3014,
      "preservatives": 3015,
      "Easy": 3016,
      "regularly": 3017,
      "cracker": 3018,
      "prepared": 3019,
      "BEST": 3020,
      "fruits": 3021,
      "Ab": 3022,
      "CK": 3023,
      "powdered": 3024,
      "fren": 3025,
      "PA": 3026,
      "iest": 3027,
      "travel": 3028,
      "minute": 3029,
      "tough": 3030,
      "stor": 3031,
      "toler": 3032,
      "word": 3033,
      "ka": 3034,
      "Bold": 3035,
      "sells": 3036,
      "refun": 3037,
      "tight": 3038,
      "prof": 3039,
      "birth": 3040,
      "ONE": 3041,
      "sta": 3042,
      "Hot": 3043,
      "spo": 3044,
      "bodied": 3045,
      "Pre": 3046,
      "lasts": 3047,
      "cereals": 3048,
      "raspberry": 3049,
      "personally": 3050,
      "ork": 3051,
      "taken": 3052,
      "pork": 3053,
      "ron": 3054,
      "appy": 3055,
      ".,": 3056,
      "broth": 3057,
      "satisfy": 3058,
      "pizza": 3059,
      "toss": 3060,
      "adult": 3061,
      "flavour": 3062,
      "fol": 3063,
      "ico": 3064,
      "ests": 3065,
      "ANY": 3066,
      "pills": 3067,
      "upset": 3068,
      "Here": 3069,
      "PRO": 3070,
      "balls": 3071,
      "crust": 3072,
      "bacon": 3073,
      "ushed": 3074,
      "Health": 3075,
      "Flavor": 3076,
      "strange": 3077,
      "Rice": 3078,
      "Fru": 3079,
      "grown": 3080,
      "Mu": 3081,
      "mango": 3082,
      "English": 3083,
      "pite": 3084,
      "choose": 3085,
      "magnesium": 3086,
      "began": 3087,
      "Pepper": 3088,
      "gust": 3089,
      "Chips": 3090,
      "Pot": 3091,
      "turkey": 3092,
      "standing": 3093,
      "addit": 3094,
      "Es": 3095,
      "nutritious": 3096,
      "Everyone": 3097,
      "stu": 3098,
      "Po": 3099,
      "accept": 3100,
      "ctose": 3101,
      "basis": 3102,
      "Own": 3103,
      "nutri": 3104,
      "LD": 3105,
      "Shi": 3106,
      "ident": 3107,
      "uring": 3108,
      "knows": 3109,
      "Delicious": 3110,
      "biscuits": 3111,
      "AZ": 3112,
      "zing": 3113,
      "literally": 3114,
      "mistake": 3115,
      "french": 3116,
      "winter": 3117,
      "chemicals": 3118,
      "Coconut": 3119,
      "dip": 3120,
      "iss": 3121,
      "vegetable": 3122,
      "eddar": 3123,
      "lly": 3124,
      "strength": 3125,
      "LA": 3126,
      "ention": 3127,
      "gross": 3128,
      "cot": 3129,
      "steak": 3130,
      "men": 3131,
      "den": 3132,
      "enjoys": 3133,
      "Ber": 3134,
      "aring": 3135,
      "fruity": 3136,
      "Sw": 3137,
      "relax": 3138,
      "cium": 3139,
      "vac": 3140,
      "happened": 3141,
      "Tur": 3142,
      "****": 3143,
      "Cook": 3144,
      "Buy": 3145,
      "weren": 3146,
      "blueberry": 3147,
      "Nor": 3148,
      "relative": 3149,
      "uccino": 3150,
      "root": 3151,
      "dian": 3152,
      "grape": 3153,
      "miner": 3154,
      "experien": 3155,
      "urally": 3156,
      "temper": 3157,
      "ane": 3158,
      "grew": 3159,
      "peppermint": 3160,
      "digestive": 3161,
      "aware": 3162,
      "chocolates": 3163,
      "MS": 3164,
      "comparison": 3165,
      "Far": 3166,
      "flu": 3167,
      "tered": 3168,
      "alot": 3169,
      "barely": 3170,
      "lester": 3171,
      "doubt": 3172,
      "business": 3173,
      "waff": 3174,
      "goo": 3175,
      "oured": 3176,
      "sense": 3177,
      "ah": 3178,
      "correct": 3179,
      "thanks": 3180,
      "REAL": 3181,
      "aked": 3182,
      "learned": 3183,
      "gall": 3184,
      "ARE": 3185,
      "compet": 3186,
      "apan": 3187,
      "lesterol": 3188,
      "jelly": 3189,
      "iff": 3190,
      "icky": 3191,
      "lier": 3192,
      "goodness": 3193,
      "Happy": 3194,
      "write": 3195,
      "...]": 3196,
      "herbal": 3197,
      "[...]": 3198,
      "Anyway": 3199,
      "RI": 3200,
      "reaction": 3201,
      "retail": 3202,
      "suggested": 3203,
      "diabetic": 3204,
      "Too": 3205,
      "stain": 3206,
      "Big": 3207,
      "burnt": 3208,
      "advertised": 3209,
      "gravy": 3210,
      "stated": 3211,
      "options": 3212,
      "Sh": 3213,
      "bother": 3214,
      "develo": 3215,
      "continued": 3216,
      "mor": 3217,
      "filter": 3218,
      "roo": 3219,
      "dec": 3220,
      "Earth": 3221,
      "folks": 3222,
      "flax": 3223,
      "reminds": 3224,
      "---": 3225,
      "disgust": 3226,
      "gourmet": 3227,
      "distin": 3228,
      "appet": 3229,
      "wards": 3230,
      "lab": 3231,
      "question": 3232,
      "grass": 3233,
      "intake": 3234,
      "Ca": 3235,
      "popped": 3236,
      "arently": 3237,
      "freezer": 3238,
      "grade": 3239,
      "zes": 3240,
      "allergy": 3241,
      "Super": 3242,
      "Light": 3243,
      "sad": 3244,
      "animal": 3245,
      "ference": 3246,
      "Str": 3247,
      "bake": 3248,
      "email": 3249,
      "interested": 3250,
      "movie": 3251,
      "abulous": 3252,
      "yeast": 3253,
      "kitten": 3254,
      "enh": 3255,
      "mustard": 3256,
      "levels": 3257,
      "coho": 3258,
      "tor": 3259,
      "pets": 3260,
      "apples": 3261,
      "tomatoes": 3262,
      "missing": 3263,
      "Ju": 3264,
      "risk": 3265,
      "hazelnut": 3266,
      "early": 3267,
      "colors": 3268,
      "program": 3269,
      "muffin": 3270,
      "hua": 3271,
      "heaven": 3272,
      "inary": 3273,
      "Sa": 3274,
      "yr": 3275,
      "rose": 3276,
      "KE": 3277,
      "realized": 3278,
      "curry": 3279,
      "17": 3280,
      "drop": 3281,
      "temperature": 3282,
      "gers": 3283,
      "rec": 3284,
      "delic": 3285,
      "inated": 3286,
      "Another": 3287,
      "melted": 3288,
      "loss": 3289,
      "robust": 3290,
      "cran": 3291,
      "companies": 3292,
      "Kind": 3293,
      "nose": 3294,
      "flakes": 3295,
      "Ket": 3296,
      "effective": 3297,
      "oxid": 3298,
      "describe": 3299,
      "Val": 3300,
      "surpris": 3301,
      "turns": 3302,
      "conf": 3303,
      "pract": 3304,
      "rawh": 3305,
      "rat": 3306,
      "honestly": 3307,
      "dissol": 3308,
      "Won": 3309,
      "popular": 3310,
      "allows": 3311,
      "pose": 3312,
      "ificant": 3313,
      "balanced": 3314,
      "Japan": 3315,
      "lovely": 3316,
      "town": 3317,
      "bage": 3318,
      "onto": 3319,
      "rock": 3320,
      "From": 3321,
      "auce": 3322,
      "onion": 3323,
      "Their": 3324,
      "benefit": 3325,
      "handy": 3326,
      "kill": 3327,
      "ather": 3328,
      "lla": 3329,
      "ams": 3330,
      "maint": 3331,
      "experiment": 3332,
      "distinct": 3333,
      "significant": 3334,
      "Bab": 3335,
      "contents": 3336,
      "dented": 3337,
      "firm": 3338,
      "watery": 3339,
      "urated": 3340,
      "GOOD": 3341,
      "sweeter": 3342,
      "Sometimes": 3343,
      "success": 3344,
      "paren": 3345,
      "freshness": 3346,
      "searching": 3347,
      "raisins": 3348,
      "birthday": 3349,
      "Recommend": 3350,
      "disappointing": 3351,
      "additional": 3352,
      "pho": 3353,
      "Crunch": 3354,
      "peas": 3355,
      "gri": 3356,
      "People": 3357,
      "Mil": 3358,
      "messy": 3359,
      "Nature": 3360,
      "tree": 3361,
      "enjoyable": 3362,
      "capp": 3363,
      "arden": 3364,
      "spit": 3365,
      "arrhea": 3366,
      "intense": 3367,
      "--------": 3368,
      "tu": 3369,
      "aged": 3370,
      "tong": 3371,
      "brewer": 3372,
      "Yum": 3373,
      "amoun": 3374,
      "hey": 3375,
      "superior": 3376,
      "pops": 3377,
      "consum": 3378,
      "busy": 3379,
      "temp": 3380,
      "fructose": 3381,
      "puff": 3382,
      "Stevia": 3383,
      "miss": 3384,
      "ential": 3385,
      "holi": 3386,
      "whenever": 3387,
      "addictive": 3388,
      "Peanut": 3389,
      "beer": 3390,
      "grounds": 3391,
      "__": 3392,
      "frost": 3393,
      "foil": 3394,
      "drops": 3395,
      "Ore": 3396,
      "skept": 3397,
      "citr": 3398,
      "granate": 3399,
      "Ok": 3400,
      "damag": 3401,
      "ene": 3402,
      "ctor": 3403,
      "auto": 3404,
      "diarrhea": 3405,
      "EX": 3406,
      "sister": 3407,
      "Let": 3408,
      "reach": 3409,
      "bou": 3410,
      "concern": 3411,
      "Eu": 3412,
      "Gluten": 3413,
      "described": 3414,
      "Ginger": 3415,
      "amounts": 3416,
      "naturally": 3417,
      "uel": 3418,
      "feels": 3419,
      "throwing": 3420,
      "ev": 3421,
      "AMAZ": 3422,
      "gam": 3423,
      "bottled": 3424,
      "salads": 3425,
      "oven": 3426,
      "guests": 3427,
      "ney": 3428,
      "sugary": 3429,
      "overwhelming": 3430,
      "wake": 3431,
      "steam": 3432,
      "knowing": 3433,
      "workout": 3434,
      "discount": 3435,
      "watching": 3436,
      "followed": 3437,
      "fell": 3438,
      "awhile": 3439,
      "thro": 3440,
      "Hope": 3441,
      "eno": 3442,
      "constant": 3443,
      "yond": 3444,
      "Prime": 3445,
      "House": 3446,
      "sli": 3447,
      "spent": 3448,
      "worried": 3449,
      "appear": 3450,
      "DI": 3451,
      "Trad": 3452,
      "idae": 3453,
      "Gra": 3454,
      "ancy": 3455,
      "commer": 3456,
      "Ve": 3457,
      "fabulous": 3458,
      "mate": 3459,
      "Bought": 3460,
      "pton": 3461,
      "everywhere": 3462,
      "buck": 3463,
      "scoop": 3464,
      "Two": 3465,
      "pocket": 3466,
      "dough": 3467,
      "sorry": 3468,
      "cue": 3469,
      "iod": 3470,
      "aker": 3471,
      "vendor": 3472,
      "cial": 3473,
      "bonus": 3474,
      "fried": 3475,
      "vegetarian": 3476,
      "suppose": 3477,
      "Having": 3478,
      "tit": 3479,
      "indic": 3480,
      "Nothing": 3481,
      "oily": 3482,
      "regard": 3483,
      "arrive": 3484,
      "staple": 3485,
      "olf": 3486,
      "Lemon": 3487,
      "crumbs": 3488,
      "Kettle": 3489,
      "WO": 3490,
      "mixture": 3491,
      "mary": 3492,
      "econ": 3493,
      "gent": 3494,
      "inese": 3495,
      "exam": 3496,
      "MU": 3497,
      "ba": 3498,
      "sugars": 3499,
      "necessary": 3500,
      "Buff": 3501,
      "Mill": 3502,
      "Wow": 3503,
      "sian": 3504,
      "fragr": 3505,
      "hood": 3506,
      "liac": 3507,
      "tongue": 3508,
      "AD": 3509,
      "event": 3510,
      "relatively": 3511,
      "among": 3512,
      "Thai": 3513,
      "90": 3514,
      "truff": 3515,
      "markets": 3516,
      "gummy": 3517,
      "Tot": 3518,
      "lls": 3519,
      "boiling": 3520,
      "breed": 3521,
      "shin": 3522,
      "Buffalo": 3523,
      "affordable": 3524,
      "CE": 3525,
      "cry": 3526,
      "kitty": 3527,
      "floor": 3528,
      "BU": 3529,
      "wide": 3530,
      "refund": 3531,
      "Water": 3532,
      "ale": 3533,
      "garbage": 3534,
      "lets": 3535,
      "cked": 3536,
      "introduced": 3537,
      "zo": 3538,
      "fry": 3539,
      "ama": 3540,
      "Greenies": 3541,
      "squeeze": 3542,
      "move": 3543,
      "provides": 3544,
      "provid": 3545,
      "checked": 3546,
      "gin": 3547,
      "Finally": 3548,
      "wer": 3549,
      "helpful": 3550,
      "salted": 3551,
      "additives": 3552,
      "!).": 3553,
      "Cat": 3554,
      "meth": 3555,
      "ances": 3556,
      "trash": 3557,
      "iv": 3558,
      "nam": 3559,
      "~~": 3560,
      "ining": 3561,
      "mark": 3562,
      "gel": 3563,
      "waiting": 3564,
      "states": 3565,
      "growing": 3566,
      "nd": 3567,
      "PO": 3568,
      "inde": 3569,
      "prevent": 3570,
      "zip": 3571,
      "damaged": 3572,
      "arget": 3573,
      "multiple": 3574,
      "TAST": 3575,
      "lighter": 3576,
      "ero": 3577,
      "smoothies": 3578,
      "claims": 3579,
      "Jack": 3580,
      "2012": 3581,
      "Almonds": 3582,
      "according": 3583,
      "offers": 3584,
      "shopping": 3585,
      "Lar": 3586,
      "leg": 3587,
      "reasons": 3588,
      "toys": 3589,
      "sl": 3590,
      "tender": 3591,
      "35": 3592,
      "oooo": 3593,
      "mage": 3594,
      "cart": 3595,
      "fake": 3596,
      "skeptical": 3597,
      "WH": 3598,
      "==": 3599,
      "produced": 3600,
      "eyes": 3601,
      "young": 3602,
      "basket": 3603,
      "Baby": 3604,
      "reli": 3605,
      "starting": 3606,
      "lightly": 3607,
      "Bob": 3608,
      "cholesterol": 3609,
      "asmine": 3610,
      "funny": 3611,
      "packing": 3612,
      "Mc": 3613,
      "carries": 3614,
      "increase": 3615,
      "ffer": 3616,
      "Walmart": 3617,
      "aster": 3618,
      "Fat": 3619,
      "swallow": 3620,
      "45": 3621,
      "produce": 3622,
      "Mon": 3623,
      "bbles": 3624,
      "eli": 3625,
      "Canidae": 3626,
      "Donut": 3627,
      "Fruit": 3628,
      "ore": 3629,
      "parti": 3630,
      "moder": 3631,
      "MSG": 3632,
      "Wild": 3633,
      "clearly": 3634,
      "Lo": 3635,
      "Look": 3636,
      "obviously": 3637,
      "purse": 3638,
      "elsewhere": 3639,
      "terrific": 3640,
      "consistent": 3641,
      "Br": 3642,
      "tons": 3643,
      "aco": 3644,
      "Lipton": 3645,
      "typically": 3646,
      "oup": 3647,
      "Does": 3648,
      "THAT": 3649,
      "lass": 3650,
      "disgusting": 3651,
      "include": 3652,
      "babies": 3653,
      "following": 3654,
      "throat": 3655,
      "topping": 3656,
      "nia": 3657,
      "Spr": 3658,
      "attention": 3659,
      "See": 3660,
      "complex": 3661,
      "percent": 3662,
      "saturated": 3663,
      "ram": 3664,
      "WAY": 3665,
      "web": 3666,
      "remove": 3667,
      "Cinnamon": 3668,
      "Emer": 3669,
      "pine": 3670,
      "wood": 3671,
      "coating": 3672,
      "impossible": 3673,
      "disappointment": 3674,
      "tap": 3675,
      "llo": 3676,
      "unfortunately": 3677,
      "Comp": 3678,
      "attemp": 3679,
      "Gu": 3680,
      "tes": 3681,
      "pies": 3682,
      "conditioner": 3683,
      "alcoho": 3684,
      "Being": 3685,
      "rots": 3686,
      "words": 3687,
      "spl": 3688,
      "Sun": 3689,
      "meet": 3690,
      "guy": 3691,
      "Oil": 3692,
      "adi": 3693,
      "stink": 3694,
      "digest": 3695,
      "Seas": 3696,
      "indu": 3697,
      "Indian": 3698,
      "TI": 3699,
      "alap": 3700,
      "gifts": 3701,
      "fits": 3702,
      "vomit": 3703,
      "custom": 3704,
      "loaded": 3705,
      "oh": 3706,
      "HAVE": 3707,
      "Je": 3708,
      "common": 3709,
      "mot": 3710,
      "pat": 3711,
      "harder": 3712,
      "2nd": 3713,
      "Sn": 3714,
      "serious": 3715,
      "White": 3716,
      "Bal": 3717,
      "bites": 3718,
      "dates": 3719,
      "assort": 3720,
      "affect": 3721,
      "famili": 3722,
      "cherries": 3723,
      "Mex": 3724,
      "ric": 3725,
      "MM": 3726,
      "swe": 3727,
      "originally": 3728,
      "blo": 3729,
      "xim": 3730,
      "incredible": 3731,
      "tribut": 3732,
      "ahead": 3733,
      "fing": 3734,
      "ify": 3735,
      "flowers": 3736,
      "wild": 3737,
      "places": 3738,
      "bargain": 3739,
      "vest": 3740,
      "unpleasant": 3741,
      "handle": 3742,
      "litol": 3743,
      "properly": 3744,
      "Brown": 3745,
      "center": 3746,
      "orders": 3747,
      "herbs": 3748,
      "throughout": 3749,
      "kerne": 3750,
      "parents": 3751,
      "against": 3752,
      "momile": 3753,
      "maintain": 3754,
      "inder": 3755,
      "internet": 3756,
      "selection": 3757,
      "Ter": 3758,
      "punch": 3759,
      "thor": 3760,
      "iculous": 3761,
      "peppers": 3762,
      "Dis": 3763,
      "ylitol": 3764,
      "repe": 3765,
      "rawhide": 3766,
      "DU": 3767,
      "autom": 3768,
      "promptly": 3769,
      "latte": 3770,
      "pressure": 3771,
      "RA": 3772,
      "het": 3773,
      "handful": 3774,
      "reduce": 3775,
      "jit": 3776,
      "pink": 3777,
      "currently": 3778,
      "period": 3779,
      "wast": 3780,
      "sil": 3781,
      "thicker": 3782,
      "purpose": 3783,
      "vel": 3784,
      "assium": 3785,
      "zza": 3786,
      "Spice": 3787,
      "une": 3788,
      "savor": 3789,
      "Sum": 3790,
      "finicky": 3791,
      "Makes": 3792,
      "BO": 3793,
      "bohydr": 3794,
      "choices": 3795,
      "Many": 3796,
      "absor": 3797,
      "zero": 3798,
      "fond": 3799,
      "member": 3800,
      "More": 3801,
      "moved": 3802,
      "hardly": 3803,
      "MA": 3804,
      "incredibly": 3805,
      "nutrients": 3806,
      "cashe": 3807,
      "tangy": 3808,
      "visit": 3809,
      "Chinese": 3810,
      "eye": 3811,
      "law": 3812,
      "const": 3813,
      "Milk": 3814,
      "salsa": 3815,
      "dump": 3816,
      "cant": 3817,
      "suspect": 3818,
      "ully": 3819,
      "Almond": 3820,
      "thentic": 3821,
      "ICE": 3822,
      "sprinkle": 3823,
      "fillers": 3824,
      "Hazelnut": 3825,
      "GE": 3826,
      "YUM": 3827,
      "consume": 3828,
      "pear": 3829,
      "runs": 3830,
      "delicate": 3831,
      "tox": 3832,
      "step": 3833,
      "erson": 3834,
      "acidic": 3835,
      "rely": 3836,
      "Made": 3837,
      "reasonably": 3838,
      "Cher": 3839,
      "outstanding": 3840,
      "hind": 3841,
      "willing": 3842,
      "doctor": 3843,
      "cious": 3844,
      "Oat": 3845,
      "75": 3846,
      "oni": 3847,
      "square": 3848,
      "Fi": 3849,
      "Har": 3850,
      "CA": 3851,
      "tified": 3852,
      "Got": 3853,
      "vs": 3854,
      "IGH": 3855,
      "bright": 3856,
      "wanting": 3857,
      "Purina": 3858,
      "elect": 3859,
      "contained": 3860,
      "blueberries": 3861,
      "lovers": 3862,
      "previously": 3863,
      "TER": 3864,
      "cheddar": 3865,
      "complaints": 3866,
      "Kona": 3867,
      "grad": 3868,
      "fats": 3869,
      "Much": 3870,
      "ey": 3871,
      "York": 3872,
      "Med": 3873,
      "neigh": 3874,
      "Europe": 3875,
      "despite": 3876,
      "male": 3877,
      "limited": 3878,
      "clus": 3879,
      "slowly": 3880,
      "oot": 3881,
      "vol": 3882,
      "measure": 3883,
      "raid": 3884,
      "++": 3885,
      "winner": 3886,
      "dental": 3887,
      "cane": 3888,
      "regret": 3889,
      "err": 3890,
      "softer": 3891,
      "dollar": 3892,
      "formul": 3893,
      "ases": 3894,
      "lasting": 3895,
      "seriously": 3896,
      "noodle": 3897,
      "neither": 3898,
      "crushed": 3899,
      "Perhaps": 3900,
      "Marley": 3901,
      "girl": 3902,
      "leading": 3903,
      "!\"": 3904,
      "Never": 3905,
      "leaving": 3906,
      "disease": 3907,
      "stays": 3908,
      "Better": 3909,
      "inf": 3910,
      "kno": 3911,
      "plants": 3912,
      "IND": 3913,
      "cleaning": 3914,
      "len": 3915,
      "Orig": 3916,
      "Wonder": 3917,
      "saved": 3918,
      "apparently": 3919,
      "expectations": 3920,
      "customers": 3921,
      "Timo": 3922,
      "Sauce": 3923,
      "living": 3924,
      "spray": 3925,
      "gly": 3926,
      "ild": 3927,
      "edible": 3928,
      "Corn": 3929,
      "Sm": 3930,
      "colo": 3931,
      "usage": 3932,
      "lasted": 3933,
      "example": 3934,
      "mold": 3935,
      "LOT": 3936,
      "coup": 3937,
      "dest": 3938,
      "teen": 3939,
      "cco": 3940,
      "space": 3941,
      "appears": 3942,
      "crystal": 3943,
      "design": 3944,
      "dies": 3945,
      "Protein": 3946,
      "spill": 3947,
      "desk": 3948,
      "friendly": 3949,
      "Kr": 3950,
      "brush": 3951,
      "hasn": 3952,
      "adjust": 3953,
      "Soy": 3954,
      "Beef": 3955,
      "ashed": 3956,
      "further": 3957,
      "somewhere": 3958,
      "current": 3959,
      "IO": 3960,
      "hydrated": 3961,
      "wrap": 3962,
      "dev": 3963,
      "household": 3964,
      "frequently": 3965,
      "yal": 3966,
      "lived": 3967,
      "inning": 3968,
      "occasional": 3969,
      "tray": 3970,
      "Get": 3971,
      "ral": 3972,
      "comparable": 3973,
      "econom": 3974,
      "BLE": 3975,
      "2011": 3976,
      "shiny": 3977,
      "munch": 3978,
      "Apple": 3979,
      "parts": 3980,
      "authentic": 3981,
      "country": 3982,
      "depending": 3983,
      "equal": 3984,
      "dozen": 3985,
      "jump": 3986,
      "ids": 3987,
      "atin": 3988,
      "experienced": 3989,
      "range": 3990,
      "occasionally": 3991,
      "wed": 3992,
      "snacking": 3993,
      "FRE": 3994,
      "icing": 3995,
      "Cry": 3996,
      "ada": 3997,
      "suck": 3998,
      "ield": 3999,
      "Season": 4000,
      "impres": 4001,
      "antioxid": 4002,
      "medicine": 4003,
      "pher": 4004,
      "Joe": 4005,
      "cappuccino": 4006,
      "appealing": 4007,
      "returned": 4008,
      "ety": 4009,
      "sizes": 4010,
      "seeing": 4011,
      "timely": 4012,
      "mellow": 4013,
      "delighted": 4014,
      "split": 4015,
      "Timothy": 4016,
      "ache": 4017,
      "alapeno": 4018,
      "carrots": 4019,
      "meant": 4020,
      "forget": 4021,
      "lub": 4022,
      "road": 4023,
      "preference": 4024,
      "cul": 4025,
      "todd": 4026,
      "Did": 4027,
      "cau": 4028,
      "Instead": 4029,
      "Unlike": 4030,
      "ridiculous": 4031,
      "Ta": 4032,
      "Bean": 4033,
      "Use": 4034,
      "poo": 4035,
      "beyond": 4036,
      "prote": 4037,
      "calcium": 4038,
      "ortun": 4039,
      "Your": 4040,
      "und": 4041,
      "fingers": 4042,
      "nation": 4043,
      "dissolve": 4044,
      "Price": 4045,
      "bla": 4046,
      "dir": 4047,
      "nature": 4048,
      "yum": 4049,
      "amazed": 4050,
      "drive": 4051,
      "drip": 4052,
      "ability": 4053,
      "gallon": 4054,
      "weigh": 4055,
      "oodle": 4056,
      "shared": 4057,
      "sprout": 4058,
      "searched": 4059,
      "storage": 4060,
      "Crystal": 4061,
      "lefto": 4062,
      "shows": 4063,
      "Recommended": 4064,
      "behind": 4065,
      "hetti": 4066,
      "sard": 4067,
      "sandwiches": 4068,
      "minerals": 4069,
      "shakes": 4070,
      "aft": 4071,
      "Mal": 4072,
      "aff": 4073,
      "Otherwise": 4074,
      "starch": 4075,
      "effort": 4076,
      "improved": 4077,
      "tortill": 4078,
      "reseal": 4079,
      "bing": 4080,
      "ko": 4081,
      "Before": 4082,
      "Gro": 4083,
      "WITH": 4084,
      "izing": 4085,
      "Sea": 4086,
      "build": 4087,
      "itty": 4088,
      "Fran": 4089,
      "sesame": 4090,
      "ais": 4091,
      "olives": 4092,
      "starts": 4093,
      "hide": 4094,
      "Wolf": 4095,
      "ifor": 4096,
      ":-)": 4097,
      "SU": 4098,
      "win": 4099,
      "report": 4100,
      "ots": 4101,
      "THING": 4102,
      "tub": 4103,
      "cute": 4104,
      "Tex": 4105,
      "shouldn": 4106,
      "aghetti": 4107,
      "delightful": 4108,
      "reduced": 4109,
      "Low": 4110,
      "Next": 4111,
      "Extra": 4112,
      "Asian": 4113,
      "tre": 4114,
      "lies": 4115,
      "Magic": 4116,
      "Had": 4117,
      "charge": 4118,
      "imals": 4119,
      "degre": 4120,
      "caffeinated": 4121,
      "waffles": 4122,
      "German": 4123,
      "His": 4124,
      "cider": 4125,
      "considered": 4126,
      "refrigerator": 4127,
      "Mac": 4128,
      "fac": 4129,
      "terms": 4130,
      "cous": 4131,
      "caut": 4132,
      "ager": 4133,
      "ord": 4134,
      "ished": 4135,
      "inoa": 4136,
      "Give": 4137,
      "drain": 4138,
      "trade": 4139,
      "ifornia": 4140,
      "poured": 4141,
      "Jet": 4142,
      "prepar": 4143,
      "preferred": 4144,
      "ONLY": 4145,
      "compli": 4146,
      "holds": 4147,
      "thern": 4148,
      "inse": 4149,
      "Twin": 4150,
      "viron": 4151,
      "PE": 4152,
      "calls": 4153,
      "lol": 4154,
      "bud": 4155,
      "Si": 4156,
      "hydro": 4157,
      "commercial": 4158,
      "ashion": 4159,
      "tablespoons": 4160,
      "crap": 4161,
      "muffins": 4162,
      "trap": 4163,
      "offering": 4164,
      "ags": 4165,
      "carefully": 4166,
      "Treat": 4167,
      "adul": 4168,
      "PS": 4169,
      "avid": 4170,
      "Cream": 4171,
      "pointed": 4172,
      "caused": 4173,
      "chopped": 4174,
      "stric": 4175,
      "Trader": 4176,
      "nic": 4177,
      "bri": 4178,
      "info": 4179,
      "anger": 4180,
      "umps": 4181,
      "ittle": 4182,
      "anytime": 4183,
      "CON": 4184,
      "ived": 4185,
      "prior": 4186,
      "acceptable": 4187,
      "Sor": 4188,
      "gamot": 4189,
      "Target": 4190,
      "downside": 4191,
      "create": 4192,
      "stove": 4193,
      "print": 4194,
      "carbohydr": 4195,
      "separate": 4196,
      "jam": 4197,
      "rop": 4198,
      "cance": 4199,
      "Note": 4200,
      "brownies": 4201,
      "WOW": 4202,
      "PRODU": 4203,
      "broke": 4204,
      "forever": 4205,
      "cab": 4206,
      "Orange": 4207,
      "Wish": 4208,
      "expla": 4209,
      "kinda": 4210,
      "factor": 4211,
      "bos": 4212,
      "Tully": 4213,
      "shar": 4214,
      "dense": 4215,
      "vironment": 4216,
      "pome": 4217,
      "afraid": 4218,
      "discontinued": 4219,
      "Cheese": 4220,
      "restaurants": 4221,
      "chose": 4222,
      "imm": 4223,
      "NEVER": 4224,
      "surprisingly": 4225,
      "PRODUCT": 4226,
      "mocha": 4227,
      "ified": 4228,
      "Need": 4229,
      "goods": 4230,
      "iron": 4231,
      "strongly": 4232,
      ".-": 4233,
      "Te": 4234,
      "Healthy": 4235,
      "Sam": 4236,
      "liking": 4237,
      "reco": 4238,
      "points": 4239,
      "Ing": 4240,
      "REALLY": 4241,
      "Mr": 4242,
      "initially": 4243,
      "ism": 4244,
      "das": 4245,
      "Cherry": 4246,
      "UR": 4247,
      "Decaf": 4248,
      "Dogs": 4249,
      "indeed": 4250,
      "Bars": 4251,
      "meats": 4252,
      "begin": 4253,
      "method": 4254,
      "lean": 4255,
      "noted": 4256,
      "happens": 4257,
      "Quaker": 4258,
      "kernels": 4259,
      "California": 4260,
      "suit": 4261,
      "Original": 4262,
      "Bot": 4263,
      "Hal": 4264,
      "ively": 4265,
      "nie": 4266,
      "inexpensive": 4267,
      "sounds": 4268,
      "scre": 4269,
      "seve": 4270,
      "spoiled": 4271,
      "indul": 4272,
      "cure": 4273,
      "Though": 4274,
      "slices": 4275,
      "solution": 4276,
      "THEY": 4277,
      "Ener": 4278,
      "concentrate": 4279,
      "arom": 4280,
      "teab": 4281,
      "buttery": 4282,
      "pricing": 4283,
      "unable": 4284,
      "sher": 4285,
      "darker": 4286,
      "mmmm": 4287,
      "citrus": 4288,
      "roasts": 4289,
      "Mart": 4290,
      "Sy": 4291,
      "gang": 4292,
      "familiar": 4293,
      "ears": 4294,
      "oral": 4295,
      "Ver": 4296,
      "aran": 4297,
      "allen": 4298,
      "Wonderful": 4299,
      "uke": 4300,
      "comfor": 4301,
      "grinder": 4302,
      "Lava": 4303,
      "SH": 4304,
      "guilt": 4305,
      "PP": 4306,
      "guys": 4307,
      "poop": 4308,
      "WAS": 4309,
      "shred": 4310,
      "Cari": 4311,
      "ital": 4312,
      "bears": 4313,
      "fills": 4314,
      "carbonated": 4315,
      "Fre": 4316,
      "paw": 4317,
      "tummy": 4318,
      "Wheat": 4319,
      "Bas": 4320,
      "Sha": 4321,
      "fault": 4322,
      "thru": 4323,
      "Ingredi": 4324,
      "erc": 4325,
      "oul": 4326,
      "deliver": 4327,
      "veggie": 4328,
      "Popchips": 4329,
      "camp": 4330,
      "environment": 4331,
      "shelves": 4332,
      "BA": 4333,
      "fashion": 4334,
      "peel": 4335,
      "Calor": 4336,
      "colle": 4337,
      "strawberries": 4338,
      "IF": 4339,
      "Mic": 4340,
      "glu": 4341,
      "basic": 4342,
      "PB2": 4343,
      "Pow": 4344,
      "noticeable": 4345,
      "Keep": 4346,
      "mushy": 4347,
      "eventually": 4348,
      "aki": 4349,
      "rubber": 4350,
      "trips": 4351,
      "carried": 4352,
      "smoked": 4353,
      "atered": 4354,
      "economical": 4355,
      "GMO": 4356,
      "San": 4357,
      "reward": 4358,
      "uis": 4359,
      "animals": 4360,
      "loaf": 4361,
      "page": 4362,
      "photo": 4363,
      "Twinings": 4364,
      "32": 4365,
      "fancy": 4366,
      "CAN": 4367,
      "accid": 4368,
      "labeled": 4369,
      "Lavazza": 4370,
      "ands": 4371,
      "irac": 4372,
      "onna": 4373,
      "aging": 4374,
      "wholes": 4375,
      "mption": 4376,
      "ened": 4377,
      "challen": 4378,
      "bath": 4379,
      "Potato": 4380,
      "Im": 4381,
      "rimp": 4382,
      "sampler": 4383,
      "contacted": 4384,
      "alcohol": 4385,
      "moisture": 4386,
      "title": 4387,
      "TE": 4388,
      "bby": 4389,
      "rooms": 4390,
      "sunflower": 4391,
      "brings": 4392,
      "Fuel": 4393,
      "cum": 4394,
      "ously": 4395,
      "watered": 4396,
      "deci": 4397,
      "Yummy": 4398,
      "blender": 4399,
      "pleasure": 4400,
      "Lab": 4401,
      "spaghetti": 4402,
      "intoler": 4403,
      "capsu": 4404,
      "isco": 4405,
      "diag": 4406,
      "colored": 4407,
      "rout": 4408,
      "wonderfully": 4409,
      "sliced": 4410,
      "gummi": 4411,
      "graham": 4412,
      "tasteless": 4413,
      "workers": 4414,
      "Japanese": 4415,
      "BPA": 4416,
      "Nu": 4417,
      "strips": 4418,
      "OUT": 4419,
      "fluff": 4420,
      "Lic": 4421,
      "switching": 4422,
      "brews": 4423,
      "curi": 4424,
      "Ess": 4425,
      "Puck": 4426,
      "isk": 4427,
      "sem": 4428,
      "frosting": 4429,
      "ppy": 4430,
      "valent": 4431,
      "atable": 4432,
      "caught": 4433,
      "exerc": 4434,
      "mill": 4435,
      "pineapple": 4436,
      "marsh": 4437,
      "chill": 4438,
      "smart": 4439,
      "22": 4440,
      "onions": 4441,
      "DER": 4442,
      "smoothie": 4443,
      "cubes": 4444,
      "Salmon": 4445,
      "golden": 4446,
      "recy": 4447,
      "lids": 4448,
      "FU": 4449,
      "Person": 4450,
      "Tried": 4451,
      "talking": 4452,
      "improvement": 4453,
      "Sure": 4454,
      "cola": 4455,
      "alose": 4456,
      "squir": 4457,
      "BUY": 4458,
      "inach": 4459,
      "ashi": 4460,
      "Sumat": 4461,
      "Haw": 4462,
      "agave": 4463,
      "Farms": 4464,
      "?!": 4465,
      "Zico": 4466,
      "aca": 4467,
      "aterial": 4468,
      "cralose": 4469,
      "biot": 4470,
      "1st": 4471,
      "terday": 4472,
      "bility": 4473,
      "tends": 4474,
      "28": 4475,
      "specific": 4476,
      "FFE": 4477,
      "hemp": 4478,
      "sharp": 4479,
      "vary": 4480,
      "limit": 4481,
      "!!!!!": 4482,
      "ggy": 4483,
      "helping": 4484,
      "response": 4485,
      "AMAZON": 4486,
      "pa": 4487,
      "cancer": 4488,
      "Fol": 4489,
      "spending": 4490,
      "prescri": 4491,
      "MUCH": 4492,
      "Wolfgang": 4493,
      "ect": 4494,
      "rarely": 4495,
      "discover": 4496,
      "substitut": 4497,
      "ccoli": 4498,
      "Act": 4499,
      "Sti": 4500,
      "writing": 4501,
      "die": 4502,
      "drinkable": 4503,
      "SI": 4504,
      "deter": 4505,
      "scalp": 4506,
      "toms": 4507,
      "decide": 4508,
      "omen": 4509,
      "gie": 4510,
      "aters": 4511,
      "possibly": 4512,
      "constantly": 4513,
      "JU": 4514,
      "dose": 4515,
      "savings": 4516,
      "competit": 4517,
      "crit": 4518,
      "suffer": 4519,
      "thinks": 4520,
      "sardines": 4521,
      "wind": 4522,
      "Fiber": 4523,
      "arter": 4524,
      "freshly": 4525,
      "rave": 4526,
      "suggestion": 4527,
      "stress": 4528,
      "quit": 4529,
      "Shipping": 4530,
      "Bi": 4531,
      "itten": 4532,
      "sodas": 4533,
      "95": 4534,
      "recommendation": 4535,
      "promot": 4536,
      "pinch": 4537,
      "soci": 4538,
      "damage": 4539,
      "NOW": 4540,
      "brother": 4541,
      "hadn": 4542,
      "Total": 4543,
      "thorough": 4544,
      "'.": 4545,
      "Mom": 4546,
      "biggest": 4547,
      "manner": 4548,
      "pomegranate": 4549,
      "smelling": 4550,
      "Max": 4551,
      "Fresh": 4552,
      "verages": 4553,
      "fudge": 4554,
      "Hawai": 4555,
      "intended": 4556,
      "consistently": 4557,
      "portions": 4558,
      "ximately": 4559,
      "track": 4560,
      "answer": 4561,
      "Kraft": 4562,
      "material": 4563,
      "comments": 4564,
      "palate": 4565,
      "drinkers": 4566,
      "learn": 4567,
      "destro": 4568,
      "Absolute": 4569,
      "coats": 4570,
      "Col": 4571,
      "assortment": 4572,
      "Ge": 4573,
      "faster": 4574,
      "complain": 4575,
      "juices": 4576,
      "Ingredients": 4577,
      "mass": 4578,
      "burger": 4579,
      "Energy": 4580,
      "diagno": 4581,
      "Weight": 4582,
      "Could": 4583,
      "ists": 4584,
      "Personally": 4585,
      "DATE": 4586,
      "dilut": 4587,
      "plate": 4588,
      "lux": 4589,
      "chewed": 4590,
      "provided": 4591,
      "update": 4592,
      "smoke": 4593,
      "ets": 4594,
      "symp": 4595,
      "earlier": 4596,
      "definately": 4597,
      "stools": 4598,
      "Oreo": 4599,
      "cafe": 4600,
      "receiving": 4601,
      "wo": 4602,
      "yard": 4603,
      "filler": 4604,
      "cock": 4605,
      "tie": 4606,
      "hear": 4607,
      "shocked": 4608,
      "cravings": 4609,
      "fers": 4610,
      "factory": 4611,
      "missed": 4612,
      "changes": 4613,
      "Par": 4614,
      "rum": 4615,
      "beats": 4616,
      "notes": 4617,
      "classic": 4618,
      "tortilla": 4619,
      "remaining": 4620,
      "pun": 4621,
      "initial": 4622,
      "beware": 4623,
      "......": 4624,
      "hoped": 4625,
      "mood": 4626,
      "arily": 4627,
      "moment": 4628,
      "istic": 4629,
      "Drink": 4630,
      "wont": 4631,
      "sticking": 4632,
      "bowls": 4633,
      "palatable": 4634,
      "sides": 4635,
      "ista": 4636,
      "potassium": 4637,
      "becomes": 4638,
      "?)": 4639,
      "below": 4640,
      "dden": 4641,
      "3r": 4642,
      "hopes": 4643,
      "required": 4644,
      "Sorry": 4645,
      ":(": 4646,
      "rema": 4647,
      "catch": 4648,
      "lip": 4649,
      "weather": 4650,
      "transition": 4651,
      "chees": 4652,
      "happily": 4653,
      "pockets": 4654,
      "happier": 4655,
      "saves": 4656,
      "sausage": 4657,
      "rancid": 4658,
      "dispen": 4659,
      "amela": 4660,
      "gums": 4661,
      "VOR": 4662,
      "chamomile": 4663,
      "developed": 4664,
      "shown": 4665,
      "GO": 4666,
      "diabetes": 4667,
      "Am": 4668,
      "PER": 4669,
      "hur": 4670,
      "Market": 4671,
      "grill": 4672,
      "bran": 4673,
      "labels": 4674,
      "elimin": 4675,
      "Emeril": 4676,
      "aromatic": 4677,
      "anas": 4678,
      "Has": 4679,
      "finger": 4680,
      "scar": 4681,
      "select": 4682,
      "una": 4683,
      "quantities": 4684,
      "guilty": 4685,
      "protect": 4686,
      "keting": 4687,
      "combo": 4688,
      "Absolutely": 4689,
      "includes": 4690,
      "Grain": 4691,
      "ratio": 4692,
      "causes": 4693,
      "del": 4694,
      "overpriced": 4695,
      "ached": 4696,
      "Again": 4697,
      "Bis": 4698,
      "ising": 4699,
      "loving": 4700,
      "beverages": 4701,
      "syrups": 4702,
      "hearty": 4703,
      "prefers": 4704,
      "Pamela": 4705,
      "mainly": 4706,
      "harm": 4707,
      "rip": 4708,
      "neighbor": 4709,
      "Double": 4710,
      "emer": 4711,
      "gging": 4712,
      "consumption": 4713,
      "slice": 4714,
      "Tazo": 4715,
      "ideal": 4716,
      "layer": 4717,
      "resealable": 4718,
      "rolls": 4719,
      "mints": 4720,
      "Cafe": 4721,
      "ibos": 4722,
      "thrown": 4723,
      "Turkey": 4724,
      ",,": 4725,
      "crumbly": 4726,
      "toddler": 4727,
      "therefore": 4728,
      "orts": 4729,
      "Straw": 4730,
      "containing": 4731,
      "adults": 4732,
      "equi": 4733,
      "opposed": 4734,
      "Caribou": 4735,
      "asking": 4736,
      "muscle": 4737,
      "wrapper": 4738,
      "Sto": 4739,
      "MORE": 4740,
      "cabin": 4741,
      "fined": 4742,
      "Usu": 4743,
      "ifically": 4744,
      "push": 4745,
      "pregn": 4746,
      "moisturi": 4747,
      "tured": 4748,
      "TR": 4749,
      "reorder": 4750,
      "KIND": 4751,
      "umb": 4752,
      "Sodium": 4753,
      "thrit": 4754,
      "tear": 4755,
      "popper": 4756,
      "clos": 4757,
      "grainy": 4758,
      "soooo": 4759,
      "removed": 4760,
      "Mango": 4761,
      "bubble": 4762,
      "assion": 4763,
      "deser": 4764,
      "tial": 4765,
      "gle": 4766,
      "chain": 4767,
      "somehow": 4768,
      "Lime": 4769,
      "3rd": 4770,
      "dipping": 4771,
      "conv": 4772,
      "RDA": 4773,
      "rep": 4774,
      "bear": 4775,
      "owners": 4776,
      "recie": 4777,
      "owner": 4778,
      "Update": 4779,
      "duck": 4780,
      "Box": 4781,
      "spring": 4782,
      "combined": 4783,
      "Usually": 4784,
      "Which": 4785,
      "lamb": 4786,
      "melon": 4787,
      "pron": 4788,
      "distribut": 4789,
      "warning": 4790,
      "48": 4791,
      "THEM": 4792,
      "genated": 4793,
      "lucky": 4794,
      "formed": 4795,
      "dead": 4796,
      "alternatives": 4797,
      "tad": 4798,
      "shel": 4799,
      "sett": 4800,
      "Pure": 4801,
      "accident": 4802,
      "Hi": 4803,
      "wow": 4804,
      "La": 4805,
      "story": 4806,
      "weed": 4807,
      "showed": 4808,
      "blended": 4809,
      "cashews": 4810,
      "Oatmeal": 4811,
      "strain": 4812,
      "digestion": 4813,
      "THESE": 4814,
      "supplements": 4815,
      "marshm": 4816,
      "ration": 4817,
      "closed": 4818,
      "promised": 4819,
      "Seriously": 4820,
      "garden": 4821,
      "feet": 4822,
      "fficient": 4823,
      "supermarkets": 4824,
      "beginning": 4825,
      "sources": 4826,
      "Golden": 4827,
      "consuming": 4828,
      "truffle": 4829,
      "dissa": 4830,
      "VI": 4831,
      "unsweetened": 4832,
      "ww": 4833,
      "oud": 4834,
      "shell": 4835,
      "versions": 4836,
      "23": 4837,
      "hurt": 4838,
      "iva": 4839,
      "UPDATE": 4840,
      "Bull": 4841,
      "infect": 4842,
      "organ": 4843,
      "Those": 4844,
      "makers": 4845,
      "shaped": 4846,
      "Day": 4847,
      "EVERY": 4848,
      "Nutr": 4849,
      "automatic": 4850,
      "rote": 4851,
      "link": 4852,
      "breads": 4853,
      "sig": 4854,
      "assume": 4855,
      "marketing": 4856,
      "childhood": 4857,
      "Balance": 4858,
      "Make": 4859,
      "Reg": 4860,
      "eight": 4861,
      "soothing": 4862,
      "knock": 4863,
      "Amaz": 4864,
      "essential": 4865,
      "fishy": 4866,
      "yesterday": 4867,
      "lin": 4868,
      "indoor": 4869,
      "stur": 4870,
      "chow": 4871,
      "dietary": 4872,
      "detect": 4873,
      "wasabi": 4874,
      "cupboard": 4875,
      "36": 4876,
      "instantly": 4877,
      "consumed": 4878,
      "refused": 4879,
      "designed": 4880,
      "LIC": 4881,
      "allowed": 4882,
      "thoroughly": 4883,
      "Caf": 4884,
      "Des": 4885,
      "imply": 4886,
      "ele": 4887,
      "hole": 4888,
      "spoonful": 4889,
      "lacking": 4890,
      "heated": 4891,
      "shame": 4892,
      "lemonade": 4893,
      "hesitant": 4894,
      "savory": 4895,
      "college": 4896,
      "Last": 4897,
      "rescue": 4898,
      "Luck": 4899,
      "Shop": 4900,
      "lent": 4901,
      "broccoli": 4902,
      "stocking": 4903,
      "kettle": 4904,
      "kitties": 4905,
      "PLE": 4906,
      "stored": 4907,
      "didnt": 4908,
      "appropri": 4909,
      "increased": 4910,
      "holiday": 4911,
      "refined": 4912,
      "Chili": 4913,
      "Link": 4914,
      "tsp": 4915,
      "max": 4916,
      "icy": 4917,
      "burst": 4918,
      "Bro": 4919,
      "vil": 4920,
      "shrimp": 4921,
      "21": 4922,
      "quinoa": 4923,
      "mbers": 4924,
      "About": 4925,
      "Aw": 4926,
      "anx": 4927,
      "monthly": 4928,
      "dding": 4929,
      "requires": 4930,
      "appetite": 4931,
      "misleading": 4932,
      "Second": 4933,
      "gluco": 4934,
      "Ad": 4935,
      "ek": 4936,
      "andy": 4937,
      "symptoms": 4938,
      "comfort": 4939,
      "speak": 4940,
      "ITE": 4941,
      "Out": 4942,
      "ix": 4943,
      "lestial": 4944,
      "rinse": 4945,
      "production": 4946,
      "support": 4947,
      "closest": 4948,
      "ered": 4949,
      "spark": 4950,
      "approximately": 4951,
      "wrote": 4952,
      "Italy": 4953,
      "acqu": 4954,
      "brain": 4955,
      "resi": 4956,
      "soak": 4957,
      "celiac": 4958,
      "barbe": 4959,
      "replaced": 4960,
      "cram": 4961,
      "WILL": 4962,
      "significantly": 4963,
      "harsh": 4964,
      "memor": 4965,
      "highest": 4966,
      "ENT": 4967,
      "Watch": 4968,
      "UN": 4969,
      "attr": 4970,
      "fail": 4971,
      "fussy": 4972,
      "machines": 4973,
      "Special": 4974,
      "fragrance": 4975,
      "Espresso": 4976,
      "frust": 4977,
      "rage": 4978,
      "tested": 4979,
      "prime": 4980,
      "toasted": 4981,
      "roly": 4982,
      "Mexican": 4983,
      "constip": 4984,
      "wholesome": 4985,
      "ues": 4986,
      "boyfriend": 4987,
      "puffs": 4988,
      "uum": 4989,
      "THAN": 4990,
      "vomiting": 4991,
      "Calories": 4992,
      "lines": 4993,
      "Plan": 4994,
      "antic": 4995,
      "arts": 4996,
      "LOVED": 4997,
      "wasted": 4998,
      "Pret": 4999,
      "ji": 5000,
      "iracle": 5001,
      "closer": 5002,
      "adily": 5003,
      "bull": 5004,
      "manage": 5005,
      "zzle": 5006,
      "Kashi": 5007,
      "Raspberry": 5008,
      "boys": 5009,
      "seafood": 5010,
      "hated": 5011,
      "England": 5012,
      "diagnosed": 5013,
      "None": 5014,
      "Inter": 5015,
      "Cocoa": 5016,
      "picy": 5017,
      "rolled": 5018,
      "bananas": 5019,
      "agre": 5020,
      "acks": 5021,
      "$$": 5022,
      "puree": 5023,
      "8oz": 5024,
      "FLA": 5025,
      "spinach": 5026,
      "Cookies": 5027,
      "Leaf": 5028,
      "refrigerated": 5029,
      "feature": 5030,
      "consumer": 5031,
      "usto": 5032,
      "serves": 5033,
      "antioxidants": 5034,
      "sweets": 5035,
      "ramen": 5036,
      "Jama": 5037,
      "gelow": 5038,
      "Brit": 5039,
      "Jerky": 5040,
      "sno": 5041,
      "resist": 5042,
      "???": 5043,
      "tolerate": 5044,
      "Spicy": 5045,
      "hunger": 5046,
      "Cuis": 5047,
      "FI": 5048,
      "insu": 5049,
      "nect": 5050,
      "cutting": 5051,
      "gooey": 5052,
      "bered": 5053,
      "domin": 5054,
      "earth": 5055,
      "batches": 5056,
      "Celestial": 5057,
      "Fancy": 5058,
      "Hard": 5059,
      "NY": 5060,
      "South": 5061,
      "jasmine": 5062,
      "NT": 5063,
      "pancake": 5064,
      "Purch": 5065,
      "Feast": 5066,
      "Premium": 5067,
      "mushrooms": 5068,
      "Essent": 5069,
      "pleasing": 5070,
      "warned": 5071,
      "aches": 5072,
      "mornings": 5073,
      "passed": 5074,
      "fight": 5075,
      "Ir": 5076,
      "leak": 5077,
      "expired": 5078,
      "Everything": 5079,
      "overnight": 5080,
      "edge": 5081,
      "habit": 5082,
      "Buying": 5083,
      "thirst": 5084,
      "sac": 5085,
      "secre": 5086,
      "anted": 5087,
      "intest": 5088,
      "chup": 5089,
      "Hers": 5090,
      "eng": 5091,
      "traveling": 5092,
      "Squ": 5093,
      "nois": 5094,
      "greens": 5095,
      "advice": 5096,
      "rins": 5097,
      "recall": 5098,
      "ceived": 5099,
      "inade": 5100,
      "severe": 5101,
      "soggy": 5102,
      "specifically": 5103,
      "Strawberry": 5104,
      "cough": 5105,
      "vies": 5106,
      "ession": 5107,
      "stum": 5108,
      "eaters": 5109,
      "father": 5110,
      "Ac": 5111,
      "herb": 5112,
      "LIKE": 5113,
      "phy": 5114,
      "Glor": 5115,
      "thats": 5116,
      "anno": 5117,
      "certified": 5118,
      "Com": 5119,
      "milder": 5120,
      "placing": 5121,
      "rass": 5122,
      "wondering": 5123,
      "BS": 5124,
      "sudden": 5125,
      "qui": 5126,
      "sched": 5127,
      "hits": 5128,
      "pit": 5129,
      "tins": 5130,
      "equivalent": 5131,
      "Honest": 5132,
      "Syrup": 5133,
      "unhealthy": 5134,
      "hassle": 5135,
      "Cons": 5136,
      "soap": 5137,
      "fresher": 5138,
      "cranberry": 5139,
      "national": 5140,
      "Ze": 5141,
      "hid": 5142,
      "hydrogenated": 5143,
      "attractive": 5144,
      "ION": 5145,
      "bell": 5146,
      "term": 5147,
      "Caramel": 5148,
      "electroly": 5149,
      "Fast": 5150,
      "usters": 5151,
      "000": 5152,
      "attempt": 5153,
      "born": 5154,
      "resem": 5155,
      "pitch": 5156,
      "esty": 5157,
      "cheapest": 5158,
      "gag": 5159,
      "ani": 5160,
      "kidney": 5161,
      "Bottom": 5162,
      "fire": 5163,
      "Bigelow": 5164,
      "MI": 5165,
      "versat": 5166,
      "Berry": 5167,
      "stocked": 5168,
      "Simply": 5169,
      "cross": 5170,
      "grilled": 5171,
      "mbered": 5172,
      "sus": 5173,
      "assimo": 5174,
      "aside": 5175,
      "fries": 5176,
      "Vinegar": 5177,
      "batter": 5178,
      "minis": 5179,
      "subject": 5180,
      "OULD": 5181,
      "advant": 5182,
      "saver": 5183,
      "Switch": 5184,
      "cranberries": 5185,
      "Cris": 5186,
      "Tru": 5187,
      "ike": 5188,
      "manufacturers": 5189,
      "Gloria": 5190,
      "PR": 5191,
      "lers": 5192,
      "blow": 5193,
      "chewer": 5194,
      "Mint": 5195,
      "danger": 5196,
      "reminded": 5197,
      "stool": 5198,
      "request": 5199,
      "Gourmet": 5200,
      "coated": 5201,
      "molass": 5202,
      "greatly": 5203,
      "acts": 5204,
      "Coke": 5205,
      "Zuke": 5206,
      "Ordered": 5207,
      "Dun": 5208,
      "Sat": 5209,
      "dad": 5210,
      "held": 5211,
      "bergamot": 5212,
      "2010": 5213,
      "breaking": 5214,
      "America": 5215,
      "Jim": 5216,
      "verse": 5217,
      "cooks": 5218,
      "entirely": 5219,
      "boring": 5220,
      "nip": 5221,
      "erous": 5222,
      "ropical": 5223,
      "remembered": 5224,
      "coloring": 5225,
      "wax": 5226,
      "USE": 5227,
      "melts": 5228,
      "useful": 5229,
      "crave": 5230,
      "lunches": 5231,
      "wered": 5232,
      "dering": 5233,
      "hopefully": 5234,
      "Actually": 5235,
      "guaran": 5236,
      "members": 5237,
      "Tra": 5238,
      "Hill": 5239,
      "aspart": 5240,
      "ening": 5241,
      "ulp": 5242,
      "charac": 5243,
      "decad": 5244,
      "readily": 5245,
      "mega": 5246,
      "sucralose": 5247,
      "locat": 5248,
      "bowel": 5249,
      "volu": 5250,
      "listic": 5251,
      "section": 5252,
      "TASTE": 5253,
      "Bell": 5254,
      "shredded": 5255,
      "gritty": 5256,
      "specialty": 5257,
      "caution": 5258,
      "molasses": 5259,
      "lying": 5260,
      "miles": 5261,
      "Check": 5262,
      "Sad": 5263,
      "120": 5264,
      "commit": 5265,
      "news": 5266,
      "vacuum": 5267,
      "Works": 5268,
      "younger": 5269,
      "disc": 5270,
      "grey": 5271,
      "bling": 5272,
      "fluffy": 5273,
      "pepp": 5274,
      "desired": 5275,
      "popping": 5276,
      "Numi": 5277,
      "FDA": 5278,
      "whi": 5279,
      "ordinary": 5280,
      "Ye": 5281,
      "created": 5282,
      "150": 5283,
      "Pr": 5284,
      "adopt": 5285,
      "inst": 5286,
      "sturdy": 5287,
      "equally": 5288,
      "Vet": 5289,
      "mat": 5290,
      "theater": 5291,
      "explo": 5292,
      "ios": 5293,
      "fizz": 5294,
      "sending": 5295,
      "written": 5296,
      "toxic": 5297,
      "Essentia": 5298,
      "umbs": 5299,
      "earthy": 5300,
      "standards": 5301,
      "Bra": 5302,
      "invol": 5303,
      "unit": 5304,
      "unusual": 5305,
      "scare": 5306,
      "enne": 5307,
      "besides": 5308,
      "moving": 5309,
      "Life": 5310,
      "vacation": 5311,
      "Pan": 5312,
      "pherd": 5313,
      "Texas": 5314,
      "Hershey": 5315,
      "Fo": 5316,
      "pH": 5317,
      "ounds": 5318,
      "sprinkled": 5319,
      "aspartame": 5320,
      "Gi": 5321,
      "situ": 5322,
      "5g": 5323,
      "cient": 5324,
      "heal": 5325,
      "posed": 5326,
      "Pill": 5327,
      "Peach": 5328,
      "jalapeno": 5329,
      "shower": 5330,
      "usable": 5331,
      "concept": 5332,
      "medication": 5333,
      "Pie": 5334,
      "Yo": 5335,
      "superb": 5336,
      "penny": 5337,
      "brownie": 5338,
      "____": 5339,
      "pair": 5340,
      "els": 5341,
      "curious": 5342,
      "Boy": 5343,
      "holidays": 5344,
      "Folgers": 5345,
      "rived": 5346,
      "diets": 5347,
      "rare": 5348,
      "joint": 5349,
      "stands": 5350,
      "thusi": 5351,
      "Bay": 5352,
      "Tor": 5353,
      "dos": 5354,
      "adam": 5355,
      "Nutiva": 5356,
      "filtered": 5357,
      "drawer": 5358,
      "tiv": 5359,
      "runny": 5360,
      "!!!!!!!!": 5361,
      "pudding": 5362,
      "Fl": 5363,
      "rise": 5364,
      "station": 5365,
      "minimal": 5366,
      "fans": 5367,
      "Read": 5368,
      "sla": 5369,
      "crash": 5370,
      "girls": 5371,
      "xylitol": 5372,
      "cabinet": 5373,
      "cate": 5374,
      "sin": 5375,
      "dur": 5376,
      "Vine": 5377,
      "Gar": 5378,
      "bb": 5379,
      "icks": 5380,
      "develop": 5381,
      "lac": 5382,
      "Clear": 5383,
      "enthusi": 5384,
      "floral": 5385,
      "soften": 5386,
      "deta": 5387,
      "Larab": 5388,
      "Probably": 5389,
      "associ": 5390,
      "sweetner": 5391,
      "Brew": 5392,
      "ANT": 5393,
      "UPS": 5394,
      "canister": 5395,
      "hh": 5396,
      "intact": 5397,
      "Lu": 5398,
      "Smo": 5399,
      "numerous": 5400,
      "drawback": 5401,
      "Irish": 5402,
      "Ob": 5403,
      "losing": 5404,
      "warehouse": 5405,
      "IOUS": 5406,
      "Okay": 5407,
      "ville": 5408,
      "consumers": 5409,
      "adopted": 5410,
      "entertain": 5411,
      "sales": 5412,
      "relaxing": 5413,
      "exercise": 5414,
      "TW": 5415,
      "ule": 5416,
      "comend": 5417,
      "appropriate": 5418,
      "Cha": 5419,
      "tax": 5420,
      "biscuit": 5421,
      "acao": 5422,
      "Flor": 5423,
      "Oun": 5424,
      "fle": 5425,
      "tip": 5426,
      "huahua": 5427,
      "Smart": 5428,
      "JUST": 5429,
      "jen": 5430,
      "ional": 5431,
      "potent": 5432,
      "supplier": 5433,
      "Tassimo": 5434,
      "flavorings": 5435,
      "fatty": 5436,
      "substanti": 5437,
      "samples": 5438,
      "volume": 5439,
      "yuck": 5440,
      "seasonings": 5441,
      "ination": 5442,
      "grate": 5443,
      "sounded": 5444,
      "mole": 5445,
      "addicting": 5446,
      "snap": 5447,
      "traps": 5448,
      "publ": 5449,
      "richer": 5450,
      "27": 5451,
      "Dry": 5452,
      "vine": 5453,
      "decre": 5454,
      "produces": 5455,
      "exclus": 5456,
      "meds": 5457,
      "Sumatra": 5458,
      "fal": 5459,
      "Magnesium": 5460,
      "accur": 5461,
      "devour": 5462,
      "recieved": 5463,
      "carbonation": 5464,
      "iy": 5465,
      "dex": 5466,
      "tier": 5467,
      "GI": 5468,
      "illy": 5469,
      "waters": 5470,
      "otic": 5471,
      "delivers": 5472,
      "Put": 5473,
      "Tasty": 5474,
      "darn": 5475,
      "sne": 5476,
      "aspect": 5477,
      "Mocha": 5478,
      "whey": 5479,
      "routine": 5480,
      "AW": 5481,
      "lately": 5482,
      "urge": 5483,
      "idence": 5484,
      "rank": 5485,
      "COFFE": 5486,
      "ays": 5487,
      "cessive": 5488,
      "powerful": 5489,
      "concentrated": 5490,
      "LOL": 5491,
      "yed": 5492,
      "becoming": 5493,
      "sushi": 5494,
      "barley": 5495,
      "hesitate": 5496,
      "Back": 5497,
      "Mini": 5498,
      "decor": 5499,
      "generous": 5500,
      "FA": 5501,
      "seasoned": 5502,
      "Chew": 5503,
      "Tuna": 5504,
      "pig": 5505,
      "itionally": 5506,
      "dand": 5507,
      "scale": 5508,
      "Match": 5509,
      "icle": 5510,
      "antly": 5511,
      "irrit": 5512,
      "estle": 5513,
      "mesan": 5514,
      "inches": 5515,
      "istachi": 5516,
      "ugh": 5517,
      "envelo": 5518,
      "raised": 5519,
      "decis": 5520,
      "compliment": 5521,
      "cramps": 5522,
      ";)": 5523,
      "burned": 5524,
      "comfortable": 5525,
      "letting": 5526,
      "Ran": 5527,
      "apric": 5528,
      "Amazing": 5529,
      "versatile": 5530,
      "Ever": 5531,
      "Juice": 5532,
      "whim": 5533,
      "dehydrated": 5534,
      "licking": 5535,
      "Acid": 5536,
      "Vita": 5537,
      "sible": 5538,
      "biscus": 5539,
      "recogn": 5540,
      "Ounce": 5541,
      "solves": 5542,
      "ketchup": 5543,
      "potle": 5544,
      "Treats": 5545,
      "cir": 5546,
      "dislike": 5547,
      "warn": 5548,
      "walnuts": 5549,
      "secret": 5550,
      "playing": 5551,
      "glyce": 5552,
      "GH": 5553,
      "smoother": 5554,
      "Glad": 5555,
      "cred": 5556,
      "ounced": 5557,
      "smoky": 5558,
      "biotics": 5559,
      "Same": 5560,
      "Blueberry": 5561,
      "meaning": 5562,
      "Sen": 5563,
      "asco": 5564,
      "minor": 5565,
      "gged": 5566,
      "generic": 5567,
      "metal": 5568,
      "fragrant": 5569,
      "carton": 5570,
      "Jelly": 5571,
      "measured": 5572,
      "IM": 5573,
      "Pu": 5574,
      "conscious": 5575,
      "Gerber": 5576,
      "300": 5577,
      "God": 5578,
      "uva": 5579,
      "Soda": 5580,
      "burgers": 5581,
      "Needless": 5582,
      "eager": 5583,
      "lied": 5584,
      "doesnt": 5585,
      "promise": 5586,
      "puts": 5587,
      "KS": 5588,
      "Think": 5589,
      "tech": 5590,
      "whatso": 5591,
      "syn": 5592,
      "Caffe": 5593,
      ".(": 5594,
      "leep": 5595,
      "pulled": 5596,
      "prompt": 5597,
      "purchases": 5598,
      "strugg": 5599,
      "Especially": 5600,
      "Awesome": 5601,
      "pretzel": 5602,
      "character": 5603,
      "memories": 5604,
      "rain": 5605,
      "semi": 5606,
      "activ": 5607,
      "paws": 5608,
      "Cats": 5609,
      "gency": 5610,
      "obvious": 5611,
      "impression": 5612,
      "FF": 5613,
      "chocolatey": 5614,
      "cupcakes": 5615,
      "challenge": 5616,
      "COFFEE": 5617,
      "encour": 5618,
      "icial": 5619,
      "testing": 5620,
      "Matcha": 5621,
      "weekend": 5622,
      "FLAVOR": 5623,
      "ID": 5624,
      "lolli": 5625,
      "steel": 5626,
      "Received": 5627,
      "Worth": 5628,
      "degrees": 5629,
      "Square": 5630,
      "Celiac": 5631,
      "processing": 5632,
      "excessive": 5633,
      "whatsoever": 5634,
      "death": 5635,
      "depend": 5636,
      "Pome": 5637,
      "eds": 5638,
      "fewer": 5639,
      "humans": 5640,
      "posted": 5641,
      "Hopefully": 5642,
      "agle": 5643,
      "exist": 5644,
      "creme": 5645,
      "clump": 5646,
      "finishing": 5647,
      "FREE": 5648,
      "leftovers": 5649,
      "Bes": 5650,
      "zu": 5651,
      "FUL": 5652,
      "abasco": 5653,
      "Slim": 5654,
      "stash": 5655,
      "ASE": 5656,
      "sniff": 5657,
      "Recent": 5658,
      "squares": 5659,
      "prescription": 5660,
      "Canada": 5661,
      "dropped": 5662,
      "Soup": 5663,
      "theless": 5664,
      "seur": 5665,
      "ooth": 5666,
      "unt": 5667,
      "group": 5668,
      "formulas": 5669,
      "Yogi": 5670,
      "ups": 5671,
      "drug": 5672,
      "Valley": 5673,
      "EVER": 5674,
      "WOR": 5675,
      "Annie": 5676,
      "malt": 5677,
      "appreciated": 5678,
      "trail": 5679,
      "SA": 5680,
      "rush": 5681,
      "solved": 5682,
      "importantly": 5683,
      "aribo": 5684,
      "Royal": 5685,
      "vender": 5686,
      "Either": 5687,
      "Hor": 5688,
      "marinade": 5689,
      "Pros": 5690,
      "crumble": 5691,
      "opportun": 5692,
      "portable": 5693,
      "pictured": 5694,
      "snob": 5695,
      "33": 5696,
      "healthful": 5697,
      "RED": 5698,
      "Cor": 5699,
      "Oz": 5700,
      "nur": 5701,
      "changing": 5702,
      "eper": 5703,
      "ya": 5704,
      "States": 5705,
      "====": 5706,
      "cli": 5707,
      "Obviously": 5708,
      "Poc": 5709,
      "nause": 5710,
      "splash": 5711,
      "arrives": 5712,
      "tofu": 5713,
      "sie": 5714,
      "SS": 5715,
      "Dried": 5716,
      "Wer": 5717,
      "vets": 5718,
      "force": 5719,
      "holding": 5720,
      "Popcorn": 5721,
      "Terri": 5722,
      "Maxwell": 5723,
      "ruff": 5724,
      "atically": 5725,
      "donut": 5726,
      "26": 5727,
      "smokey": 5728,
      "Grand": 5729,
      "Seasonings": 5730,
      "diaper": 5731,
      "listing": 5732,
      "----------------": 5733,
      "zi": 5734,
      "heck": 5735,
      "~~~~": 5736,
      "Bene": 5737,
      "teaspoons": 5738,
      "HIGH": 5739,
      "TA": 5740,
      "function": 5741,
      "holder": 5742,
      "beautifully": 5743,
      "Frisk": 5744,
      "boiled": 5745,
      "Besides": 5746,
      "FOOD": 5747,
      "chop": 5748,
      "noisseur": 5749,
      "advantage": 5750,
      "Pump": 5751,
      "expert": 5752,
      "expire": 5753,
      "Almost": 5754,
      "substance": 5755,
      "llogg": 5756,
      "iyaki": 5757,
      "($": 5758,
      "29": 5759,
      "Ko": 5760,
      "chlor": 5761,
      "thetic": 5762,
      "palm": 5763,
      "partially": 5764,
      "Gran": 5765,
      "dream": 5766,
      "cel": 5767,
      "World": 5768,
      "coupon": 5769,
      "Cur": 5770,
      "Found": 5771,
      "restric": 5772,
      "shops": 5773,
      "sampled": 5774,
      "sets": 5775,
      "aint": 5776,
      "camping": 5777,
      "GET": 5778,
      "jer": 5779,
      "acidity": 5780,
      "repeat": 5781,
      "Smooth": 5782,
      "estic": 5783,
      "tossed": 5784,
      "Tom": 5785,
      "twist": 5786,
      "?\"": 5787,
      "Recently": 5788,
      "ility": 5789,
      "minim": 5790,
      "India": 5791,
      "dents": 5792,
      "calm": 5793,
      "named": 5794,
      "Doesn": 5795,
      "Rich": 5796,
      "isters": 5797,
      "riend": 5798,
      "afterwards": 5799,
      "pouring": 5800,
      "intolerant": 5801,
      "Jasmine": 5802,
      "address": 5803,
      "Kellogg": 5804,
      "stinky": 5805,
      "signed": 5806,
      "seven": 5807,
      "Cola": 5808,
      "wall": 5809,
      "log": 5810,
      "residue": 5811,
      "Fr": 5812,
      "Latte": 5813,
      "Tri": 5814,
      "aps": 5815,
      "glycemic": 5816,
      "ee": 5817,
      "shed": 5818,
      "quarter": 5819,
      "ures": 5820,
      "fortunate": 5821,
      "bun": 5822,
      "practically": 5823,
      "dred": 5824,
      "speed": 5825,
      "acute": 5826,
      "necessarily": 5827,
      "waffle": 5828,
      "ila": 5829,
      "ooled": 5830,
      "140": 5831,
      "cers": 5832,
      "measuring": 5833,
      "crystals": 5834,
      "mineral": 5835,
      "Dunkin": 5836,
      "puppies": 5837,
      "sens": 5838,
      "steaks": 5839,
      "satisfies": 5840,
      "convinc": 5841,
      "Honestly": 5842,
      "connoisseur": 5843,
      "Used": 5844,
      "raisin": 5845,
      "study": 5846,
      "Brand": 5847,
      "dressings": 5848,
      "truffles": 5849,
      "Friskies": 5850,
      "swi": 5851,
      "aty": 5852,
      "Kitchen": 5853,
      "plic": 5854,
      "Strong": 5855,
      "managed": 5856,
      "bers": 5857,
      "amazingly": 5858,
      "starbucks": 5859,
      "occup": 5860,
      "Are": 5861,
      "lavender": 5862,
      "decision": 5863,
      "Capp": 5864,
      "THER": 5865,
      "gentle": 5866,
      "carbohydrates": 5867,
      "capsules": 5868,
      "Gum": 5869,
      "retch": 5870,
      "electrolytes": 5871,
      "marked": 5872,
      "Upon": 5873,
      "Vegan": 5874,
      "erios": 5875,
      "Jean": 5876,
      "Sadly": 5877,
      "Haribo": 5878,
      "wafer": 5879,
      "OM": 5880,
      "bored": 5881,
      "choking": 5882,
      "exceptional": 5883,
      "Rus": 5884,
      "ths": 5885,
      "contam": 5886,
      "poses": 5887,
      "bully": 5888,
      "sorts": 5889,
      "DELIC": 5890,
      "kittens": 5891,
      "!),": 5892,
      "Ban": 5893,
      "Bon": 5894,
      "Less": 5895,
      "picking": 5896,
      "Normally": 5897,
      "emergency": 5898,
      "categ": 5899,
      "Lots": 5900,
      "mand": 5901,
      "tastier": 5902,
      "pel": 5903,
      "wafers": 5904,
      "budget": 5905,
      "pitcher": 5906,
      "Yea": 5907,
      "definite": 5908,
      "Pomegranate": 5909,
      "Pumpkin": 5910,
      "TOO": 5911,
      "Chef": 5912,
      "exclusively": 5913,
      "Aust": 5914,
      "block": 5915,
      "aroni": 5916,
      "marily": 5917,
      "Olive": 5918,
      "ensure": 5919,
      "shells": 5920,
      "OUR": 5921,
      "130": 5922,
      "Raw": 5923,
      "Goo": 5924,
      "visiting": 5925,
      "Swiss": 5926,
      "IGHT": 5927,
      "eared": 5928,
      "holes": 5929,
      "Choice": 5930,
      "END": 5931,
      "immune": 5932,
      "adamia": 5933,
      "Florida": 5934,
      "shots": 5935,
      "sco": 5936,
      "rocks": 5937,
      "causing": 5938,
      "greatest": 5939,
      "regul": 5940,
      "marin": 5941,
      "occur": 5942,
      "Orijen": 5943,
      "preparation": 5944,
      "Germany": 5945,
      "Xylitol": 5946,
      "refill": 5947,
      "telling": 5948,
      "involved": 5949,
      "opportunity": 5950,
      "ench": 5951,
      "beha": 5952,
      ")!": 5953,
      "pap": 5954,
      "mountain": 5955,
      "clusters": 5956,
      "advertising": 5957,
      "dangerous": 5958,
      "Nestle": 5959,
      "tube": 5960,
      "club": 5961,
      "towards": 5962,
      "reviewed": 5963,
      "cleaned": 5964,
      "seaweed": 5965,
      "bacter": 5966,
      "sites": 5967,
      "jug": 5968,
      "cracked": 5969,
      "sparkling": 5970,
      "disappeared": 5971,
      "charges": 5972,
      "yl": 5973,
      "outer": 5974,
      "neat": 5975,
      "incor": 5976,
      "Review": 5977,
      "uter": 5978,
      "Real": 5979,
      "senior": 5980,
      "Sour": 5981,
      "bsp": 5982,
      "modi": 5983,
      "margar": 5984,
      "hundred": 5985,
      "YOUR": 5986,
      "thumbs": 5987,
      "Maple": 5988,
      "Despite": 5989,
      "GAR": 5990,
      "mayo": 5991,
      "cuts": 5992,
      "Crunchy": 5993,
      "cles": 5994,
      "gonna": 5995,
      "nova": 5996,
      "',": 5997,
      "Hour": 5998,
      "Illy": 5999,
      "splenda": 6000,
      "healthiest": 6001,
      "desire": 6002,
      "magic": 6003,
      "Candy": 6004,
      "Mother": 6005,
      "Way": 6006,
      "oops": 6007,
      "gelatin": 6008,
      "AB": 6009,
      "thinner": 6010,
      "himself": 6011,
      "DELICIOUS": 6012,
      "properties": 6013,
      "field": 6014,
      "erts": 6015,
      "Beans": 6016,
      "game": 6017,
      "bagged": 6018,
      ".*": 6019,
      "som": 6020,
      "shipments": 6021,
      "skim": 6022,
      "frequent": 6023,
      "Oreos": 6024,
      "Bel": 6025,
      "fra": 6026,
      "tran": 6027,
      "boxed": 6028,
      "hubby": 6029,
      "Until": 6030,
      "FRO": 6031,
      "relief": 6032,
      "Ri": 6033,
      "apo": 6034,
      "dece": 6035,
      "profession": 6036,
      "yrs": 6037,
      "Garden": 6038,
      "Tig": 6039,
      "ston": 6040,
      "Within": 6041,
      "primarily": 6042,
      "assumed": 6043,
      "stumbled": 6044,
      "Omega": 6045,
      "mmm": 6046,
      "exotic": 6047,
      "related": 6048,
      "Weruva": 6049,
      "Iams": 6050,
      "fool": 6051,
      "dist": 6052,
      "dirt": 6053,
      "Ice": 6054,
      "ND": 6055,
      "pea": 6056,
      "virt": 6057,
      "Cuisine": 6058,
      "gla": 6059,
      "Organics": 6060,
      "Melit": 6061,
      "Club": 6062,
      "HU": 6063,
      "tho": 6064,
      "depart": 6065,
      "pastas": 6066,
      "shelter": 6067,
      "whipped": 6068,
      "thi": 6069,
      "stream": 6070,
      "sore": 6071,
      "Always": 6072,
      "gery": 6073,
      "constipation": 6074,
      "ffee": 6075,
      "thicken": 6076,
      "final": 6077,
      "greenies": 6078,
      "Petite": 6079,
      "Seems": 6080,
      "anticip": 6081,
      "foot": 6082,
      "string": 6083,
      "teabags": 6084,
      "DON": 6085,
      "vous": 6086,
      "reek": 6087,
      "nectar": 6088,
      "ador": 6089,
      "host": 6090,
      "apor": 6091,
      "situation": 6092,
      "largest": 6093,
      "starter": 6094,
      "Ed": 6095,
      "hist": 6096,
      "sports": 6097,
      "handling": 6098,
      "Gener": 6099,
      "cacao": 6100,
      "eta": 6101,
      "ONG": 6102,
      "respect": 6103,
      "returning": 6104,
      "chunky": 6105,
      "jun": 6106,
      "vice": 6107,
      "primary": 6108,
      "heavenly": 6109,
      "Columb": 6110,
      "purposes": 6111,
      "credit": 6112,
      "bbled": 6113,
      "uary": 6114,
      "tim": 6115,
      "fashioned": 6116,
      "cocktail": 6117,
      "agreed": 6118,
      "ec": 6119,
      "HOT": 6120,
      "David": 6121,
      "igno": 6122,
      "Cheddar": 6123,
      "hummus": 6124,
      "majority": 6125,
      "remains": 6126,
      "mad": 6127,
      "bum": 6128,
      "burning": 6129,
      "weaker": 6130,
      "explain": 6131,
      "Pretty": 6132,
      "Purchased": 6133,
      "keurig": 6134,
      "outs": 6135,
      "perate": 6136,
      "salts": 6137,
      "Licorice": 6138,
      "GS": 6139,
      "forgot": 6140,
      "lazy": 6141,
      "finely": 6142,
      "QU": 6143,
      "ns": 6144,
      "uine": 6145,
      "versus": 6146,
      "outrage": 6147,
      "Instant": 6148,
      "continues": 6149,
      "terribly": 6150,
      "coupons": 6151,
      "dirty": 6152,
      "bathroom": 6153,
      "PG": 6154,
      "TV": 6155,
      "tone": 6156,
      "tall": 6157,
      "invest": 6158,
      "omega": 6159,
      "stayed": 6160,
      "mashed": 6161,
      "ano": 6162,
      "potential": 6163,
      "adequ": 6164,
      "bio": 6165,
      "Unless": 6166,
      "complained": 6167,
      "AG": 6168,
      "Cer": 6169,
      "gres": 6170,
      "gym": 6171,
      "appearance": 6172,
      "sai": 6173,
      "Colo": 6174,
      "girlf": 6175,
      "scra": 6176,
      "COM": 6177,
      "Calm": 6178,
      "desserts": 6179,
      "Grocer": 6180,
      "believ": 6181,
      "poison": 6182,
      "minty": 6183,
      "Gh": 6184,
      "aa": 6185,
      "distinctive": 6186,
      "hence": 6187,
      "dandruff": 6188,
      "Take": 6189,
      "ARS": 6190,
      "Franc": 6191,
      "Innova": 6192,
      "Class": 6193,
      "ORE": 6194,
      "dash": 6195,
      "ole": 6196,
      "toffee": 6197,
      "lips": 6198,
      "stuffed": 6199,
      "4th": 6200,
      "passion": 6201,
      "convinced": 6202,
      "Rais": 6203,
      "arthrit": 6204,
      "tible": 6205,
      "enhance": 6206,
      ")...": 6207,
      "ude": 6208,
      "notch": 6209,
      "Island": 6210,
      "silky": 6211,
      "Teas": 6212,
      "alert": 6213,
      "commented": 6214,
      "phys": 6215,
      "Using": 6216,
      "spiced": 6217,
      "walks": 6218,
      "Vir": 6219,
      "access": 6220,
      "CS": 6221,
      "Roo": 6222,
      "gal": 6223,
      "Cas": 6224,
      "Tabasco": 6225,
      "chunk": 6226,
      "cycle": 6227,
      "acquired": 6228,
      "tries": 6229,
      "Powder": 6230,
      "Ty": 6231,
      "contr": 6232,
      "Crack": 6233,
      "stage": 6234,
      "AMAZING": 6235,
      "unity": 6236,
      "FROM": 6237,
      "Cy": 6238,
      "Seat": 6239,
      "manufactured": 6240,
      "Sou": 6241,
      "account": 6242,
      "caff": 6243,
      "farm": 6244,
      "Char": 6245,
      "nervous": 6246,
      "yeah": 6247,
      "scratching": 6248,
      "chilled": 6249,
      "catnip": 6250,
      "smallest": 6251,
      "giant": 6252,
      "itching": 6253,
      "alkal": 6254,
      "reported": 6255,
      "increasing": 6256,
      "virtually": 6257,
      "Cran": 6258,
      "lting": 6259,
      "twenty": 6260,
      "turning": 6261,
      "granul": 6262,
      "sooner": 6263,
      "nife": 6264,
      "steeping": 6265,
      "phen": 6266,
      "Nutrition": 6267,
      "Ghir": 6268,
      "user": 6269,
      "sustain": 6270,
      "ulty": 6271,
      "Fu": 6272,
      "hotter": 6273,
      "screw": 6274,
      "Evo": 6275,
      "worker": 6276,
      "medical": 6277,
      "metab": 6278,
      "concerns": 6279,
      "Ass": 6280,
      "Where": 6281,
      "women": 6282,
      "inhal": 6283,
      "quot": 6284,
      "sellers": 6285,
      "Yeah": 6286,
      "Scot": 6287,
      "knife": 6288,
      "invent": 6289,
      "ayan": 6290,
      "agon": 6291,
      "ours": 6292,
      "nights": 6293,
      "lacks": 6294,
      "King": 6295,
      "irl": 6296,
      "treated": 6297,
      "watermelon": 6298,
      "jaw": 6299,
      "Melitta": 6300,
      "Smell": 6301,
      "hull": 6302,
      "chal": 6303,
      "female": 6304,
      "Coco": 6305,
      "occasions": 6306,
      "Arrived": 6307,
      "welve": 6308,
      "heating": 6309,
      "INE": 6310,
      "error": 6311,
      "samic": 6312,
      "Hawaii": 6313,
      "Lind": 6314,
      "nal": 6315,
      "saute": 6316,
      "spir": 6317,
      "moderation": 6318,
      "Beneful": 6319,
      "sport": 6320,
      "terrier": 6321,
      "miracle": 6322,
      "sink": 6323,
      "appetizing": 6324,
      "tops": 6325,
      "cow": 6326,
      "wedding": 6327,
      "Tiger": 6328,
      "hates": 6329,
      "sits": 6330,
      "Colomb": 6331,
      "Bread": 6332,
      "indust": 6333,
      "buff": 6334,
      "According": 6335,
      "ala": 6336,
      "CHE": 6337,
      "accurate": 6338,
      "lined": 6339,
      "nug": 6340,
      "thered": 6341,
      "dissolves": 6342,
      "suming": 6343,
      "Anyone": 6344,
      "licks": 6345,
      "iskas": 6346,
      "Fortun": 6347,
      "tropical": 6348,
      "purple": 6349,
      "acids": 6350,
      "absorb": 6351,
      "hurry": 6352,
      "85": 6353,
      "Del": 6354,
      "gies": 6355,
      "leaking": 6356,
      "legs": 6357,
      "grease": 6358,
      "rooibos": 6359,
      "Dad": 6360,
      "west": 6361,
      "thes": 6362,
      "amb": 6363,
      "juicy": 6364,
      "Calcium": 6365,
      "regarding": 6366,
      "providing": 6367,
      "impressive": 6368,
      "Iced": 6369,
      "Oats": 6370,
      "arse": 6371,
      "badly": 6372,
      "facts": 6373,
      "tells": 6374,
      "cube": 6375,
      "annoying": 6376,
      "Vari": 6377,
      "foam": 6378,
      "surgery": 6379,
      "Afr": 6380,
      "arent": 6381,
      "attes": 6382,
      "schedule": 6383,
      "LLE": 6384,
      "Must": 6385,
      "combine": 6386,
      "Simil": 6387,
      "taco": 6388,
      "sharing": 6389,
      "awake": 6390,
      "sitiv": 6391,
      "Deli": 6392,
      "Luckily": 6393,
      "110": 6394,
      "icory": 6395,
      "EV": 6396,
      "Fair": 6397,
      "tolerance": 6398,
      "Grape": 6399,
      "girlfriend": 6400,
      "Min": 6401,
      "YE": 6402,
      "mong": 6403,
      "crema": 6404,
      "PL": 6405,
      "dun": 6406,
      "Fri": 6407,
      "Himal": 6408,
      "skip": 6409,
      "Res": 6410,
      "Tim": 6411,
      "choke": 6412,
      "Color": 6413,
      "boot": 6414,
      "tartar": 6415,
      "SAL": 6416,
      "leaked": 6417,
      "ferment": 6418,
      "tang": 6419,
      "hibiscus": 6420,
      "cooker": 6421,
      "ALLY": 6422,
      "hyper": 6423,
      "substantial": 6424,
      "UK": 6425,
      "tac": 6426,
      "carpet": 6427,
      "lowest": 6428,
      "correctly": 6429,
      "Pockets": 6430,
      "Seattle": 6431,
      "Hel": 6432,
      "valia": 6433,
      "settle": 6434,
      "counts": 6435,
      "Fortunately": 6436,
      "Pa": 6437,
      "planning": 6438,
      "swear": 6439,
      "tab": 6440,
      "ald": 6441,
      "display": 6442,
      "suitable": 6443,
      "ury": 6444,
      "desert": 6445,
      "imported": 6446,
      "compares": 6447,
      "woman": 6448,
      "behavi": 6449,
      "Variety": 6450,
      "Bran": 6451,
      "checking": 6452,
      "celery": 6453,
      "2g": 6454,
      "49": 6455,
      "Imag": 6456,
      "lder": 6457,
      "pol": 6458,
      "Oc": 6459,
      "TRE": 6460,
      "former": 6461,
      "SOME": 6462,
      "Tips": 6463,
      "Grocery": 6464,
      "Jan": 6465,
      "stup": 6466,
      "lling": 6467,
      "kosher": 6468,
      "DR": 6469,
      "bolder": 6470,
      "sooo": 6471,
      "reactions": 6472,
      "BIG": 6473,
      "Coun": 6474,
      "hound": 6475,
      "excess": 6476,
      "rounded": 6477,
      "lactose": 6478,
      "poodle": 6479,
      "relie": 6480,
      "ards": 6481,
      "Without": 6482,
      "comparing": 6483,
      "July": 6484,
      "Halo": 6485,
      "sulf": 6486,
      "Quick": 6487,
      "leftover": 6488,
      "cheesy": 6489,
      "harmful": 6490,
      "Taco": 6491,
      "chef": 6492,
      "Zevia": 6493,
      "iter": 6494,
      "powders": 6495,
      "IR": 6496,
      "ague": 6497,
      "mos": 6498,
      "canola": 6499,
      "HUGE": 6500,
      "cket": 6501,
      "researching": 6502,
      "Micha": 6503,
      "urine": 6504,
      "sight": 6505,
      "Should": 6506,
      "Veget": 6507,
      "Kong": 6508,
      "hang": 6509,
      "soil": 6510,
      "Peppermint": 6511,
      "addict": 6512,
      "YI": 6513,
      "roughly": 6514,
      "lists": 6515,
      "powdery": 6516,
      "safety": 6517,
      "depth": 6518,
      "sadly": 6519,
      "marshmallow": 6520,
      "Hy": 6521,
      "atory": 6522,
      "issor": 6523,
      "amer": 6524,
      "cord": 6525,
      "sensitiv": 6526,
      "Roasted": 6527,
      "grateful": 6528,
      "slim": 6529,
      "fold": 6530,
      "Nab": 6531,
      "rab": 6532,
      "infer": 6533,
      "greek": 6534,
      "ronic": 6535,
      "lat": 6536,
      "labor": 6537,
      "gotta": 6538,
      "satisfaction": 6539,
      "roller": 6540,
      "iel": 6541,
      "inedible": 6542,
      "dissapointed": 6543,
      "rand": 6544,
      "ripped": 6545,
      "Three": 6546,
      "quart": 6547,
      "doggie": 6548,
      "apply": 6549,
      "barbecue": 6550,
      "Aca": 6551,
      "Ul": 6552,
      "corner": 6553,
      "earl": 6554,
      "estyle": 6555,
      "atorade": 6556,
      "Gevalia": 6557,
      "durable": 6558,
      "city": 6559,
      "samine": 6560,
      "Watchers": 6561,
      "minimum": 6562,
      "RONG": 6563,
      "fly": 6564,
      "sia": 6565,
      "film": 6566,
      "Fig": 6567,
      "linger": 6568,
      "dram": 6569,
      "pups": 6570,
      "phone": 6571,
      "adore": 6572,
      "Fan": 6573,
      "thri": 6574,
      "veter": 6575,
      "Garlic": 6576,
      "rind": 6577,
      "laugh": 6578,
      "whose": 6579,
      "ledge": 6580,
      "rolling": 6581,
      "carbohydrate": 6582,
      "sensation": 6583,
      "Van": 6584,
      "category": 6585,
      "carrot": 6586,
      "overwhelm": 6587,
      "Grove": 6588,
      "settled": 6589,
      "British": 6590,
      "Ku": 6591,
      "ride": 6592,
      "basil": 6593,
      "Chee": 6594,
      "Imagine": 6595,
      "length": 6596,
      "Francisco": 6597,
      "AA": 6598,
      "Vel": 6599,
      "airy": 6600,
      "heads": 6601,
      "affy": 6602,
      "pistachi": 6603,
      "ICK": 6604,
      "reflux": 6605,
      "mongrass": 6606,
      "Fish": 6607,
      "Rain": 6608,
      "ribut": 6609,
      "spots": 6610,
      "500": 6611,
      "mildly": 6612,
      "arthritis": 6613,
      "nit": 6614,
      "hips": 6615,
      "collection": 6616,
      "overweight": 6617,
      "Naturals": 6618,
      "competitive": 6619,
      "Belgi": 6620,
      "Belly": 6621,
      "Cre": 6622,
      "gobble": 6623,
      "Shepherd": 6624,
      "truth": 6625,
      "Company": 6626,
      "European": 6627,
      "Creme": 6628,
      "twelve": 6629,
      "stretch": 6630,
      "sel": 6631,
      "nel": 6632,
      "buyer": 6633,
      "owned": 6634,
      "sons": 6635,
      "Avo": 6636,
      "retain": 6637,
      "loween": 6638,
      "Stars": 6639,
      "Lamb": 6640,
      "kcups": 6641,
      "entially": 6642,
      "recommends": 6643,
      "beneficial": 6644,
      "macaroni": 6645,
      "Looking": 6646,
      "BY": 6647,
      "fear": 6648,
      "sleeping": 6649,
      "lollipops": 6650,
      "Sil": 6651,
      "Span": 6652,
      "clumps": 6653,
      "virgin": 6654,
      "identical": 6655,
      "reminis": 6656,
      "chocolaty": 6657,
      "steamed": 6658,
      "fif": 6659,
      "grapefruit": 6660,
      "chalky": 6661,
      "random": 6662,
      "ruined": 6663,
      "profile": 6664,
      "perfor": 6665,
      "nivo": 6666,
      "public": 6667,
      "yo": 6668,
      "represent": 6669,
      "hew": 6670,
      "costly": 6671,
      "Old": 6672,
      "SP": 6673,
      "ners": 6674,
      "sequ": 6675,
      "cell": 6676,
      "condi": 6677,
      "famous": 6678,
      "DOES": 6679,
      "cotti": 6680,
      "Right": 6681,
      "focus": 6682,
      "shire": 6683,
      "scissor": 6684,
      "VIA": 6685,
      "Hab": 6686,
      "Main": 6687,
      "reput": 6688,
      "arde": 6689,
      "ishing": 6690,
      "grinding": 6691,
      "suddenly": 6692,
      "BTW": 6693,
      "nau": 6694,
      "pk": 6695,
      "falls": 6696,
      "obs": 6697,
      "oultry": 6698,
      "occupied": 6699,
      "CR": 6700,
      "inny": 6701,
      "nearby": 6702,
      "citric": 6703,
      "vita": 6704,
      "hail": 6705,
      "soaked": 6706,
      "nowhere": 6707,
      "Formula": 6708,
      "***": 6709,
      "faint": 6710,
      "*****": 6711,
      "Bur": 6712,
      "surface": 6713,
      "Starbuck": 6714,
      "Banana": 6715,
      "dated": 6716,
      "frank": 6717,
      "minus": 6718,
      "frying": 6719,
      "teabag": 6720,
      "dispenser": 6721,
      "DHA": 6722,
      "cin": 6723,
      "shine": 6724,
      "Meal": 6725,
      "walked": 6726,
      "motiv": 6727,
      "lattes": 6728,
      "forced": 6729,
      "kidding": 6730,
      "melly": 6731,
      "stupid": 6732,
      "JO": 6733,
      "mans": 6734,
      "utter": 6735,
      "refuse": 6736,
      "medications": 6737,
      "steeped": 6738,
      "AP": 6739,
      "nu": 6740,
      "inv": 6741,
      "ign": 6742,
      "trial": 6743,
      "daughters": 6744,
      "Apparently": 6745,
      "Sc": 6746,
      "Little": 6747,
      "Toffee": 6748,
      "herself": 6749,
      "spear": 6750,
      "appeared": 6751,
      "hydration": 6752,
      "jumped": 6753,
      "kety": 6754,
      "allic": 6755,
      "disappear": 6756,
      "stirring": 6757,
      "eacute": 6758,
      "hip": 6759,
      "everybody": 6760,
      "reviewing": 6761,
      "funky": 6762,
      "Aid": 6763,
      "Stea": 6764,
      "rant": 6765,
      "forth": 6766,
      "washed": 6767,
      "Via": 6768,
      "diced": 6769,
      "pestic": 6770,
      "bugs": 6771,
      "failed": 6772,
      "genuine": 6773,
      "department": 6774,
      "adequate": 6775,
      "Nabisco": 6776,
      "hoy": 6777,
      "horri": 6778,
      "TEA": 6779,
      "Iron": 6780,
      "Sep": 6781,
      "upper": 6782,
      "treatment": 6783,
      "stew": 6784,
      "bedtime": 6785,
      "emailed": 6786,
      "loo": 6787,
      "smelly": 6788,
      "retri": 6789,
      "anal": 6790,
      "tery": 6791,
      "Today": 6792,
      "regardless": 6793,
      "Compared": 6794,
      "Medium": 6795,
      "preparing": 6796,
      "Jamaica": 6797,
      "Cappuccino": 6798,
      "IL": 6799,
      "cil": 6800,
      "tones": 6801,
      "ingest": 6802,
      "solids": 6803,
      "saff": 6804,
      "gobbled": 6805,
      "resulting": 6806,
      "falling": 6807,
      "ILL": 6808,
      "bic": 6809,
      "tag": 6810,
      "decaffeinated": 6811,
      "proof": 6812,
      "brittle": 6813,
      "supposedly": 6814,
      "OMG": 6815,
      "Dou": 6816,
      "meg": 6817,
      "Granted": 6818,
      "Serving": 6819,
      "reliable": 6820,
      "kits": 6821,
      "assuming": 6822,
      "appoint": 6823,
      "joke": 6824,
      "steal": 6825,
      "thir": 6826,
      "tos": 6827,
      "veeta": 6828,
      "chest": 6829,
      "contribut": 6830,
      "arrival": 6831,
      "Something": 6832,
      "degree": 6833,
      "Fun": 6834,
      "pecans": 6835,
      "ioca": 6836,
      "Sim": 6837,
      "pars": 6838,
      "wrapping": 6839,
      "shortbread": 6840,
      "Select": 6841,
      "pictures": 6842,
      "Small": 6843,
      "Braz": 6844,
      "history": 6845,
      "inser": 6846,
      "peppercorn": 6847,
      "metallic": 6848,
      "Bed": 6849,
      "gast": 6850,
      "ara": 6851,
      "coco": 6852,
      "ples": 6853,
      "spital": 6854,
      "Aug": 6855,
      "novel": 6856,
      "experimenting": 6857,
      "defect": 6858,
      "PACK": 6859,
      "eded": 6860,
      "llie": 6861,
      "convent": 6862,
      "waited": 6863,
      "Didn": 6864,
      "Might": 6865,
      "ony": 6866,
      "snaps": 6867,
      "harvest": 6868,
      "tightly": 6869,
      "Safe": 6870,
      "pregnant": 6871,
      "scissors": 6872,
      "\"...": 6873,
      "URE": 6874,
      "remark": 6875,
      "dips": 6876,
      "jack": 6877,
      "dig": 6878,
      "CHI": 6879,
      "Ground": 6880,
      "diluted": 6881,
      "sneak": 6882,
      "Austral": 6883,
      "whereas": 6884,
      "INT": 6885,
      "marketed": 6886,
      "Chip": 6887,
      "Past": 6888,
      "ddy": 6889,
      "expense": 6890,
      "roasting": 6891,
      "calling": 6892,
      "assured": 6893,
      "Jalapeno": 6894,
      "ender": 6895,
      "essentially": 6896,
      "zzy": 6897,
      "Eat": 6898,
      "FYI": 6899,
      "pulp": 6900,
      "hell": 6901,
      "whom": 6902,
      "Dece": 6903,
      "phosp": 6904,
      "squirt": 6905,
      "substitutes": 6906,
      "encourage": 6907,
      "tacos": 6908,
      "1g": 6909,
      "DV": 6910,
      "DIS": 6911,
      "obtain": 6912,
      "advertise": 6913,
      "covering": 6914,
      "cancel": 6915,
      "$.": 6916,
      "eth": 6917,
      "scient": 6918,
      "crisps": 6919,
      "Flour": 6920,
      "Kool": 6921,
      "UE": 6922,
      "rele": 6923,
      "cleaner": 6924,
      "inferior": 6925,
      "ships": 6926,
      "Hey": 6927,
      "reminiscent": 6928,
      "65": 6929,
      "Full": 6930,
      "Thail": 6931,
      "bark": 6932,
      "kins": 6933,
      "asleep": 6934,
      "trin": 6935,
      "DAY": 6936,
      "evapor": 6937,
      "Columbian": 6938,
      "Thailand": 6939,
      "HAS": 6940,
      "March": 6941,
      "belly": 6942,
      "wels": 6943,
      "gummies": 6944,
      "neighborhood": 6945,
      "SHE": 6946,
      "dam": 6947,
      "van": 6948,
      "unbeliev": 6949,
      "closely": 6950,
      "Yellow": 6951,
      "Qual": 6952,
      "tempted": 6953,
      "Michael": 6954,
      "%.": 6955,
      "finest": 6956,
      "HIGHLY": 6957,
      "pers": 6958,
      "chee": 6959,
      "refrigeration": 6960,
      "Snack": 6961,
      "Colombian": 6962,
      "Amy": 6963,
      "Five": 6964,
      "infus": 6965,
      "deals": 6966,
      "ORDER": 6967,
      "considerably": 6968,
      "simmer": 6969,
      "Donuts": 6970,
      "Half": 6971,
      "Fam": 6972,
      "iso": 6973,
      "lob": 6974,
      "pots": 6975,
      "Core": 6976,
      "meaty": 6977,
      "Cheerios": 6978,
      "researched": 6979,
      "55": 6980,
      "OME": 6981,
      "Top": 6982,
      "wan": 6983,
      "advise": 6984,
      "talked": 6985,
      "Root": 6986,
      "welcome": 6987,
      "lift": 6988,
      "FECT": 6989,
      "Mrs": 6990,
      "War": 6991,
      "pace": 6992,
      "tt": 6993,
      "ami": 6994,
      "joe": 6995,
      "Whiskas": 6996,
      "differently": 6997,
      "Therefore": 6998,
      "Virgin": 6999,
      "Lou": 7000,
      "mies": 7001,
      "Ny": 7002,
      "image": 7003,
      "mask": 7004,
      "anero": 7005,
      "enic": 7006,
      "dio": 7007,
      "flavorless": 7008,
      "complaining": 7009,
      "driving": 7010,
      "impact": 7011,
      "Mate": 7012,
      "aver": 7013,
      "????": 7014,
      "walking": 7015,
      "OTHER": 7016,
      "Liver": 7017,
      "surprising": 7018,
      "spearmint": 7019,
      "Ki": 7020,
      "Pep": 7021,
      "VEN": 7022,
      "shaker": 7023,
      "WHAT": 7024,
      "intestinal": 7025,
      "0g": 7026,
      "oom": 7027,
      "constit": 7028,
      "SUGAR": 7029,
      "Basically": 7030,
      "nuggets": 7031,
      "Temp": 7032,
      "dg": 7033,
      "tam": 7034,
      "producing": 7035,
      "cithin": 7036,
      "position": 7037,
      "licked": 7038,
      "Petco": 7039,
      "bang": 7040,
      "oft": 7041,
      "forest": 7042,
      "True": 7043,
      "bbq": 7044,
      "gor": 7045,
      "prone": 7046,
      "enhan": 7047,
      "fondant": 7048,
      "elder": 7049,
      "lus": 7050,
      "chicory": 7051,
      "Thin": 7052,
      "rule": 7053,
      "HAD": 7054,
      "Granola": 7055,
      "extr": 7056,
      "plump": 7057,
      "spilled": 7058,
      "yield": 7059,
      "Consi": 7060,
      "Ham": 7061,
      "az": 7062,
      "rates": 7063,
      "deodor": 7064,
      "luct": 7065,
      "Someone": 7066,
      "ensity": 7067,
      "frankly": 7068,
      "iety": 7069,
      "reluct": 7070,
      "ickory": 7071,
      "discer": 7072,
      "ESOME": 7073,
      "ADD": 7074,
      "AWESOME": 7075,
      "chan": 7076,
      "tips": 7077,
      "cleans": 7078,
      "breaks": 7079,
      "sions": 7080,
      "tests": 7081,
      "Grade": 7082,
      "mend": 7083,
      "needing": 7084,
      "wonders": 7085,
      "fraction": 7086,
      "addiction": 7087,
      "pronounced": 7088,
      "Fantastic": 7089,
      "illon": 7090,
      "moisturizer": 7091,
      "associated": 7092,
      "Men": 7093,
      "pecan": 7094,
      ".......": 7095,
      "groceries": 7096,
      "guessing": 7097,
      "Guess": 7098,
      ");": 7099,
      "Camp": 7100,
      "Miss": 7101,
      "edges": 7102,
      "aces": 7103,
      "umin": 7104,
      "mins": 7105,
      "cloying": 7106,
      "bringing": 7107,
      "poultry": 7108,
      "coarse": 7109,
      "unopened": 7110,
      "visited": 7111,
      "tonight": 7112,
      "matters": 7113,
      "shock": 7114,
      "Based": 7115,
      "haz": 7116,
      "rika": 7117,
      "click": 7118,
      "creating": 7119,
      "TIME": 7120,
      "Regard": 7121,
      "34": 7122,
      "ads": 7123,
      "chia": 7124,
      "thickness": 7125,
      "thankful": 7126,
      "Mine": 7127,
      "valu": 7128,
      "showing": 7129,
      "transfer": 7130,
      "Herbal": 7131,
      "Betty": 7132,
      "dumped": 7133,
      "Halloween": 7134,
      "envelope": 7135,
      "unfortunate": 7136,
      "OUGH": 7137,
      "staying": 7138,
      "BET": 7139,
      "crumbled": 7140,
      "manufacturing": 7141,
      "lentils": 7142,
      "Pat": 7143,
      "kne": 7144,
      "stone": 7145,
      "oodles": 7146,
      "brewers": 7147,
      "INK": 7148,
      "leather": 7149,
      "bank": 7150,
      "wasting": 7151,
      "stack": 7152,
      "Whenever": 7153,
      "PRICE": 7154,
      "France": 7155,
      "Himalayan": 7156,
      "Kids": 7157,
      "ito": 7158,
      "................": 7159,
      "sacri": 7160,
      "professional": 7161,
      "wings": 7162,
      "complement": 7163,
      "lifestyle": 7164,
      "activity": 7165,
      "Mid": 7166,
      "fli": 7167,
      "Lickety": 7168,
      "mem": 7169,
      "sufficient": 7170,
      "useless": 7171,
      "feedback": 7172,
      "charged": 7173,
      "PERFECT": 7174,
      "Ni": 7175,
      "tomax": 7176,
      "compon": 7177,
      "Raisin": 7178,
      "refer": 7179,
      "stable": 7180,
      "abica": 7181,
      "tablets": 7182,
      "Farm": 7183,
      "glucose": 7184,
      "qualities": 7185,
      "Delight": 7186,
      "filters": 7187,
      "printed": 7188,
      "Delivery": 7189,
      "medicinal": 7190,
      "HEAL": 7191,
      "nutrient": 7192,
      "parties": 7193,
      "outrageous": 7194,
      "Rock": 7195,
      "flours": 7196,
      "Loved": 7197,
      "guarantee": 7198,
      "December": 7199,
      "HF": 7200,
      "glut": 7201,
      "ung": 7202,
      "richness": 7203,
      "dextrin": 7204,
      "Bac": 7205,
      "cavi": 7206,
      "rap": 7207,
      "Beware": 7208,
      "Nuts": 7209,
      "names": 7210,
      "//": 7211,
      "amom": 7212,
      "aka": 7213,
      "separately": 7214,
      "Classic": 7215,
      "stim": 7216,
      "Cereal": 7217,
      "Couldn": 7218,
      "Habanero": 7219,
      "secure": 7220,
      "lemongrass": 7221,
      "heavily": 7222,
      "hr": 7223,
      "fourth": 7224,
      "depends": 7225,
      "attribut": 7226,
      "difficulty": 7227,
      "hearts": 7228,
      "infused": 7229,
      "peppery": 7230,
      "Nyla": 7231,
      "Sever": 7232,
      "Zero": 7233,
      "spar": 7234,
      "claimed": 7235,
      "Contain": 7236,
      "washing": 7237,
      "confused": 7238,
      "Stik": 7239,
      "Sk": 7240,
      "fy": 7241,
      "san": 7242,
      "cones": 7243,
      "Stream": 7244,
      "attached": 7245,
      "mushroom": 7246,
      "studies": 7247,
      "Mad": 7248,
      "rink": 7249,
      "ches": 7250,
      "habits": 7251,
      "chihuahua": 7252,
      "Mexico": 7253,
      "Smoke": 7254,
      "Tempt": 7255,
      "COO": 7256,
      "learning": 7257,
      "Torani": 7258,
      "Several": 7259,
      "WHO": 7260,
      "chronic": 7261,
      "article": 7262,
      "ilt": 7263,
      "hospital": 7264,
      "everytime": 7265,
      "infections": 7266,
      "anxiety": 7267,
      "Country": 7268,
      "Oo": 7269,
      "sole": 7270,
      "goodies": 7271,
      "gobbles": 7272,
      "Ranch": 7273,
      "chloride": 7274,
      "Agave": 7275,
      "Duck": 7276,
      "El": 7277,
      "sels": 7278,
      "miso": 7279,
      "EXCE": 7280,
      "Four": 7281,
      "vid": 7282,
      "dipped": 7283,
      "movies": 7284,
      "insane": 7285,
      "preservative": 7286,
      "cashew": 7287,
      "3g": 7288,
      "olism": 7289,
      "casser": 7290,
      "directed": 7291,
      "video": 7292,
      "grandmother": 7293,
      "Rose": 7294,
      "intend": 7295,
      "inners": 7296,
      "CHO": 7297,
      "hamburger": 7298,
      "grassy": 7299,
      "indulge": 7300,
      "lady": 7301,
      "pale": 7302,
      "ft": 7303,
      "beloved": 7304,
      "areas": 7305,
      "demand": 7306,
      "suffe": 7307,
      "calming": 7308,
      "Inc": 7309,
      "OUND": 7310,
      "repeated": 7311,
      "ray": 7312,
      "choo": 7313,
      "haha": 7314,
      "applic": 7315,
      "worthy": 7316,
      "AF": 7317,
      "pi": 7318,
      "zze": 7319,
      "achie": 7320,
      "hotel": 7321,
      "Start": 7322,
      "books": 7323,
      "bacteria": 7324,
      "Path": 7325,
      "cies": 7326,
      "snow": 7327,
      "ayenne": 7328,
      "getic": 7329,
      "balsamic": 7330,
      "Canin": 7331,
      "jittery": 7332,
      "AIN": 7333,
      "Greek": 7334,
      "creamers": 7335,
      "ranch": 7336,
      "exciting": 7337,
      "false": 7338,
      "caviar": 7339,
      "WELL": 7340,
      "pronounce": 7341,
      "HEALTH": 7342,
      "leans": 7343,
      "ribs": 7344,
      "achsh": 7345,
      "energi": 7346,
      "alright": 7347,
      "oolong": 7348,
      "conco": 7349,
      "crab": 7350,
      "micro": 7351,
      "attack": 7352,
      "Haven": 7353,
      "MUST": 7354,
      "pregnancy": 7355,
      "Cranberry": 7356,
      "Velveeta": 7357,
      "math": 7358,
      "mixer": 7359,
      "shaking": 7360,
      "planet": 7361,
      "subjective": 7362,
      "pin": 7363,
      "informed": 7364,
      "shor": 7365,
      "Flax": 7366,
      "grabbed": 7367,
      "clusion": 7368,
      "discs": 7369,
      "fork": 7370,
      "feline": 7371,
      "powered": 7372,
      "watering": 7373,
      "altern": 7374,
      "airtight": 7375,
      "Boo": 7376,
      "Part": 7377,
      "WON": 7378,
      "modified": 7379,
      "Pal": 7380,
      "Ret": 7381,
      "TLE": 7382,
      "nies": 7383,
      "park": 7384,
      "remed": 7385,
      "judge": 7386,
      "offerings": 7387,
      "Time": 7388,
      "Hawaiian": 7389,
      "Quality": 7390,
      "%,": 7391,
      "bay": 7392,
      "button": 7393,
      "ilet": 7394,
      "AME": 7395,
      "cotton": 7396,
      "gradually": 7397,
      "behavior": 7398,
      "West": 7399,
      "def": 7400,
      "refrigerate": 7401,
      "Dar": 7402,
      "IES": 7403,
      "United": 7404,
      "peaches": 7405,
      "selected": 7406,
      "vin": 7407,
      "disagree": 7408,
      "microwa": 7409,
      "diabetics": 7410,
      "pellets": 7411,
      "4oz": 7412,
      ">>": 7413,
      "gence": 7414,
      "forms": 7415,
      "wondered": 7416,
      "powering": 7417,
      "growth": 7418,
      "Terrier": 7419,
      "stimul": 7420,
      "customed": 7421,
      "TRY": 7422,
      "thiop": 7423,
      "):": 7424,
      "outdoor": 7425,
      "upside": 7426,
      "Place": 7427,
      "grandson": 7428,
      "Internet": 7429,
      "ata": 7430,
      "arg": 7431,
      "accustomed": 7432,
      "oland": 7433,
      "ferences": 7434,
      "indicates": 7435,
      "YUMMY": 7436,
      "Bites": 7437,
      "Da": 7438,
      "EAT": 7439,
      "smile": 7440,
      "favour": 7441,
      "enjoyment": 7442,
      "surely": 7443,
      "Remember": 7444,
      "Orgain": 7445,
      "fixed": 7446,
      "bills": 7447,
      "window": 7448,
      "Given": 7449,
      "science": 7450,
      "tbsp": 7451,
      "infla": 7452,
      "blown": 7453,
      "ARD": 7454,
      "presentation": 7455,
      "fuss": 7456,
      "Northern": 7457,
      "latest": 7458,
      "Pac": 7459,
      "cloves": 7460,
      "cean": 7461,
      "peace": 7462,
      "essed": 7463,
      "buzz": 7464,
      "LOW": 7465,
      "headache": 7466,
      "Links": 7467,
      "conventional": 7468,
      "Gatorade": 7469,
      "todextrin": 7470,
      "canisters": 7471,
      "irk": 7472,
      "bel": 7473,
      "biting": 7474,
      "Dietary": 7475,
      "Spe": 7476,
      "encoun": 7477,
      "ports": 7478,
      "Such": 7479,
      "creates": 7480,
      "vendors": 7481,
      "Pup": 7482,
      "SUP": 7483,
      "dull": 7484,
      "ift": 7485,
      "spoil": 7486,
      "Dire": 7487,
      "automatically": 7488,
      "Oolong": 7489,
      "proven": 7490,
      "vod": 7491,
      "pm": 7492,
      "shall": 7493,
      "bonsai": 7494,
      "ESS": 7495,
      "refuses": 7496,
      "poorly": 7497,
      "profit": 7498,
      "metabolism": 7499,
      "Similac": 7500,
      "HFCS": 7501,
      "brow": 7502,
      "itchy": 7503,
      "sprouts": 7504,
      "SM": 7505,
      "hn": 7506,
      "proce": 7507,
      "quench": 7508,
      "emplo": 7509,
      "ardelli": 7510,
      "Fa": 7511,
      "Kit": 7512,
      "Kore": 7513,
      "rof": 7514,
      "Thought": 7515,
      "unexpected": 7516,
      "nutmeg": 7517,
      "aired": 7518,
      "proteins": 7519,
      "Mixed": 7520,
      "lifes": 7521,
      "Tomato": 7522,
      "CF": 7523,
      "Easter": 7524,
      "merch": 7525,
      "south": 7526,
      "suggests": 7527,
      "Additionally": 7528,
      "onnaise": 7529,
      "glucosamine": 7530,
      "CAL": 7531,
      "fuel": 7532,
      "headaches": 7533,
      "Google": 7534,
      "Bri": 7535,
      "Dream": 7536,
      "Sch": 7537,
      "tum": 7538,
      "reference": 7539,
      "plum": 7540,
      "finds": 7541,
      "responsible": 7542,
      "applesauce": 7543,
      "accidentally": 7544,
      "hidden": 7545,
      "54": 7546,
      "Cra": 7547,
      "PRE": 7548,
      "border": 7549,
      "hers": 7550,
      "Order": 7551,
      "flaxseed": 7552,
      "insulin": 7553,
      "cleared": 7554,
      "origin": 7555,
      "retriever": 7556,
      "\")": 7557,
      "Soft": 7558,
      "jim": 7559,
      "stre": 7560,
      "favors": 7561,
      "COMM": 7562,
      "stood": 7563,
      "JOY": 7564,
      "Cake": 7565,
      "statement": 7566,
      "Wasabi": 7567,
      "pungent": 7568,
      "details": 7569,
      "sees": 7570,
      "wear": 7571,
      "Extract": 7572,
      "immediate": 7573,
      "cooler": 7574,
      "Looks": 7575,
      "toward": 7576,
      "neck": 7577,
      "hairballs": 7578,
      "tricks": 7579,
      "failure": 7580,
      "Acai": 7581,
      "Simple": 7582,
      "WHE": 7583,
      "Been": 7584,
      "pricy": 7585,
      "blame": 7586,
      "Larabars": 7587,
      "Ethiop": 7588,
      "Long": 7589,
      "beli": 7590,
      "byproducts": 7591,
      "perfection": 7592,
      "gible": 7593,
      "caloric": 7594,
      "Packaging": 7595,
      "compliments": 7596,
      "capsule": 7597,
      "apricot": 7598,
      "Kosher": 7599,
      "BR": 7600,
      "grated": 7601,
      "successful": 7602,
      "Large": 7603,
      "weighs": 7604,
      "vodka": 7605,
      "Ahoy": 7606,
      "Pine": 7607,
      "mut": 7608,
      "torn": 7609,
      "laden": 7610,
      "moderate": 7611,
      "Cl": 7612,
      "Clif": 7613,
      "Clean": 7614,
      "Ram": 7615,
      "mol": 7616,
      "pears": 7617,
      "energetic": 7618,
      "hype": 7619,
      "MIO": 7620,
      "kish": 7621,
      "unsalted": 7622,
      "Holistic": 7623,
      "shapes": 7624,
      "Malt": 7625,
      "June": 7626,
      "Sur": 7627,
      "tific": 7628,
      "embar": 7629,
      "trusted": 7630,
      "encountered": 7631,
      "illet": 7632,
      "...)": 7633,
      "inspect": 7634,
      "Cookie": 7635,
      "questions": 7636,
      "6oz": 7637,
      "Neither": 7638,
      "Yet": 7639,
      "fence": 7640,
      "exposed": 7641,
      "anybody": 7642,
      "mental": 7643,
      "porate": 7644,
      "Thanksgiving": 7645,
      "melting": 7646,
      "storing": 7647,
      "ester": 7648,
      "seas": 7649,
      "cave": 7650,
      "tedly": 7651,
      "hunt": 7652,
      "Rooibos": 7653,
      "SALT": 7654,
      "AC": 7655,
      "utch": 7656,
      "Exp": 7657,
      "scot": 7658,
      "deodorant": 7659,
      "OVER": 7660,
      "ja": 7661,
      "ptive": 7662,
      "rye": 7663,
      "topped": 7664,
      "heap": 7665,
      "grinds": 7666,
      "ratings": 7667,
      "absorbed": 7668,
      "devoured": 7669,
      "ridiculously": 7670,
      "polic": 7671,
      "ERS": 7672,
      "glasses": 7673,
      "Mor": 7674,
      "Mel": 7675,
      "gins": 7676,
      "recomend": 7677,
      "enu": 7678,
      "compost": 7679,
      "returns": 7680,
      "infection": 7681,
      "gressive": 7682,
      "peppercorns": 7683,
      "Cru": 7684,
      "ote": 7685,
      "cted": 7686,
      "advent": 7687,
      "disting": 7688,
      "fluid": 7689,
      "tremend": 7690,
      "Sri": 7691,
      "fooled": 7692,
      "record": 7693,
      "promis": 7694,
      "tastiest": 7695,
      "imit": 7696,
      "Bear": 7697,
      "LON": 7698,
      "allowing": 7699,
      "deserves": 7700,
      "marshmallows": 7701,
      "IMO": 7702,
      "itis": 7703,
      "hiking": 7704,
      "realistic": 7705,
      "gia": 7706,
      "fortune": 7707,
      "Eden": 7708,
      "ZE": 7709,
      "gently": 7710,
      "pate": 7711,
      "enhances": 7712,
      "Store": 7713,
      "chops": 7714,
      "Dove": 7715,
      "ud": 7716,
      "parmesan": 7717,
      "hints": 7718,
      "trays": 7719,
      "ylon": 7720,
      "GU": 7721,
      "clove": 7722,
      "nap": 7723,
      "haban": 7724,
      "unhappy": 7725,
      "unnecessary": 7726,
      "knowledge": 7727,
      "conditions": 7728,
      "Mary": 7729,
      "crow": 7730,
      "eling": 7731,
      "isnt": 7732,
      "ubby": 7733,
      "180": 7734,
      "indicated": 7735,
      "blah": 7736,
      "Chewy": 7737,
      "Merr": 7738,
      "antro": 7739,
      "bubbles": 7740,
      "Americ": 7741,
      "trees": 7742,
      "Cut": 7743,
      "GAN": 7744,
      "glow": 7745,
      "arm": 7746,
      "adish": 7747,
      "student": 7748,
      "WHEN": 7749,
      "tapioca": 7750,
      "BETTER": 7751,
      "subscribed": 7752,
      "oppos": 7753,
      "Izze": 7754,
      "WOULD": 7755,
      "nine": 7756,
      "worries": 7757,
      "raise": 7758,
      "blackberry": 7759,
      "kibbles": 7760,
      "42": 7761,
      "vending": 7762,
      "isian": 7763,
      "core": 7764,
      "venison": 7765,
      "brea": 7766,
      "evenly": 7767,
      "mote": 7768,
      "mite": 7769,
      "itter": 7770,
      "lap": 7771,
      "Beyond": 7772,
      "sweetening": 7773,
      "16oz": 7774,
      "commerci": 7775,
      "jitters": 7776,
      "knocking": 7777,
      "Trade": 7778,
      "decadent": 7779,
      "industry": 7780,
      "Vi": 7781,
      "miniature": 7782,
      "frosted": 7783,
      "memory": 7784,
      "5oz": 7785,
      "?).": 7786,
      "AK": 7787,
      "flaky": 7788,
      "medio": 7789,
      "message": 7790,
      "ENJOY": 7791,
      "Disappoint": 7792,
      "facility": 7793,
      "LUT": 7794,
      "reject": 7795,
      "loyal": 7796,
      "stems": 7797,
      "approach": 7798,
      "Potassium": 7799,
      "rinsed": 7800,
      "Comple": 7801,
      "Smells": 7802,
      "Apri": 7803,
      "anise": 7804,
      "trace": 7805,
      "intention": 7806,
      "hairball": 7807,
      "resort": 7808,
      "toppings": 7809,
      "Hout": 7810,
      "Whe": 7811,
      "tober": 7812,
      "slimy": 7813,
      "suffering": 7814,
      "Cytomax": 7815,
      "buffalo": 7816,
      "August": 7817,
      "Hus": 7818,
      "divine": 7819,
      "logy": 7820,
      "blind": 7821,
      "numbers": 7822,
      "North": 7823,
      "39": 7824,
      "Au": 7825,
      "Pho": 7826,
      "gun": 7827,
      "uro": 7828,
      "urinary": 7829,
      "anta": 7830,
      "warmed": 7831,
      "********": 7832,
      "Ghirardelli": 7833,
      "asks": 7834,
      "whip": 7835,
      "ORN": 7836,
      "Thankfully": 7837,
      "gained": 7838,
      "ucket": 7839,
      "tubs": 7840,
      "Creamy": 7841,
      "sparingly": 7842,
      "Dent": 7843,
      "ict": 7844,
      "stuffing": 7845,
      "counting": 7846,
      "nutritionally": 7847,
      "tarts": 7848,
      "Short": 7849,
      "synthetic": 7850,
      "uminum": 7851,
      "bird": 7852,
      "alive": 7853,
      "brick": 7854,
      "labeling": 7855,
      "aspberries": 7856,
      "++++": 7857,
      "FAR": 7858,
      "NUT": 7859,
      "dum": 7860,
      "aks": 7861,
      "approved": 7862,
      "brief": 7863,
      "Paul": 7864,
      "evaporated": 7865,
      "Ive": 7866,
      "Yuck": 7867,
      "bat": 7868,
      "attract": 7869,
      "stiff": 7870,
      "textures": 7871,
      "sawdust": 7872,
      "scoops": 7873,
      "cardamom": 7874,
      "Products": 7875,
      "Pepsi": 7876,
      "Egg": 7877,
      "pug": 7878,
      "fav": 7879,
      "Onion": 7880,
      "Frank": 7881,
      "reusable": 7882,
      "Hemp": 7883,
      "saltiness": 7884,
      "macadamia": 7885,
      "experiences": 7886,
      "dissolved": 7887,
      "ACT": 7888,
      "gate": 7889,
      "mous": 7890,
      "asian": 7891,
      "whis": 7892,
      "idge": 7893,
      "quicker": 7894,
      "bury": 7895,
      "cured": 7896,
      "Boston": 7897,
      "alkaline": 7898,
      "enzy": 7899,
      "igree": 7900,
      "dieting": 7901,
      "stomachs": 7902,
      "additive": 7903,
      "requested": 7904,
      "elderly": 7905,
      "April": 7906,
      "GR": 7907,
      "MANY": 7908,
      "oam": 7909,
      "remote": 7910,
      "dom": 7911,
      "teach": 7912,
      "chipotle": 7913,
      "Service": 7914,
      "healing": 7915,
      "rash": 7916,
      "ills": 7917,
      "spiciness": 7918,
      "safely": 7919,
      "tartness": 7920,
      "Temptations": 7921,
      "span": 7922,
      "Beet": 7923,
      "opposite": 7924,
      "Adu": 7925,
      "FIN": 7926,
      "NAT": 7927,
      "Nute": 7928,
      "kcup": 7929,
      "famil": 7930,
      "toaster": 7931,
      "removing": 7932,
      "assorted": 7933,
      "irkland": 7934,
      "perfu": 7935,
      "recovery": 7936,
      "Home": 7937,
      "sprinkles": 7938,
      "practice": 7939,
      "bler": 7940,
      "Greenie": 7941,
      "chemically": 7942,
      "WAYS": 7943,
      "adione": 7944,
      "dilute": 7945,
      "Bad": 7946,
      "Crock": 7947,
      "Crema": 7948,
      "justify": 7949,
      "intri": 7950,
      "mont": 7951,
      "ziplock": 7952,
      "5th": 7953,
      "Hu": 7954,
      "TWO": 7955,
      "gop": 7956,
      "ux": 7957,
      "endor": 7958,
      "antucket": 7959,
      "smashed": 7960,
      "nacho": 7961,
      "alternate": 7962,
      "Scal": 7963,
      "ider": 7964,
      "itos": 7965,
      "ller": 7966,
      "sometime": 7967,
      "carnivo": 7968,
      "differences": 7969,
      "clock": 7970,
      "scared": 7971,
      "rinds": 7972,
      "mediocre": 7973,
      "Nutella": 7974,
      "98": 7975,
      "bin": 7976,
      "efficient": 7977,
      "essence": 7978,
      "stains": 7979,
      "Merrick": 7980,
      "aken": 7981,
      "rend": 7982,
      "index": 7983,
      "partial": 7984,
      "percentage": 7985,
      "Girl": 7986,
      "tro": 7987,
      "utral": 7988,
      "ette": 7989,
      "jito": 7990,
      "www": 7991,
      "PLEASE": 7992,
      "Planters": 7993,
      "foul": 7994,
      "nour": 7995,
      "target": 7996,
      "favourite": 7997,
      "96": 7998,
      "ulf": 7999,
      "cares": 8000,
      "steady": 8001,
      "pesticides": 8002,
      "release": 8003,
      "eliminate": 8004,
      "quiet": 8005,
      "Nes": 8006,
      "cayenne": 8007,
      "pile": 8008,
      "acular": 8009,
      "preferences": 8010,
      "expand": 8011,
      "pastry": 8012,
      "Mio": 8013,
      "hydrate": 8014,
      "Assam": 8015,
      "\"!": 8016,
      "dye": 8017,
      "vit": 8018,
      "oldest": 8019,
      "wrappers": 8020,
      "Bergamot": 8021,
      "DID": 8022,
      "joints": 8023,
      "Find": 8024,
      "ras": 8025,
      "react": 8026,
      "hable": 8027,
      "soaking": 8028,
      "coast": 8029,
      "coffeemaker": 8030,
      "carame": 8031,
      "Southern": 8032,
      "lingering": 8033,
      "Houtte": 8034,
      "Call": 8035,
      "thous": 8036,
      "enance": 8037,
      "Seasoning": 8038,
      "cheeses": 8039,
      "eding": 8040,
      "moths": 8041,
      "racha": 8042,
      "NOTHING": 8043,
      "ipment": 8044,
      "muscles": 8045,
      "2009": 8046,
      "Totally": 8047,
      "munching": 8048,
      "Dogswell": 8049,
      "Smokehouse": 8050,
      "shorter": 8051,
      ".).": 8052,
      "CI": 8053,
      "Nantucket": 8054,
      "shrink": 8055,
      "prun": 8056,
      "cornbread": 8057,
      "zzled": 8058,
      "COL": 8059,
      "Walden": 8060,
      "doubled": 8061,
      "paprika": 8062,
      "cheesecake": 8063,
      "Power": 8064,
      "veterin": 8065,
      "suffered": 8066,
      "intrigu": 8067,
      ";-": 8068,
      "sake": 8069,
      "noses": 8070,
      "arians": 8071,
      "charging": 8072,
      "nibble": 8073,
      "HOWE": 8074,
      "spilling": 8075,
      "contrast": 8076,
      "October": 8077,
      "COMMEND": 8078,
      "Sty": 8079,
      "neighb": 8080,
      "International": 8081,
      "HOWEVER": 8082,
      "%)": 8083,
      "Non": 8084,
      "Ped": 8085,
      "aluminum": 8086,
      "crying": 8087,
      "easiest": 8088,
      "genet": 8089,
      "Hair": 8090,
      "eco": 8091,
      "ander": 8092,
      "esar": 8093,
      "quest": 8094,
      "preserves": 8095,
      "computer": 8096,
      "Beer": 8097,
      "USDA": 8098,
      "sampling": 8099,
      "Quite": 8100,
      "discounted": 8101,
      "Tree": 8102,
      "dup": 8103,
      "beagle": 8104,
      "supr": 8105,
      "tastebuds": 8106,
      "Cholesterol": 8107,
      "heartburn": 8108,
      "squash": 8109,
      "antioxidant": 8110,
      "COOK": 8111,
      "SWE": 8112,
      "meow": 8113,
      "suff": 8114,
      "fanatic": 8115,
      "deliber": 8116,
      "McCan": 8117,
      "Chamomile": 8118,
      "rofoam": 8119,
      "Came": 8120,
      "IVE": 8121,
      "Kirkland": 8122,
      "begging": 8123,
      "caps": 8124,
      "lities": 8125,
      "ruin": 8126,
      "tape": 8127,
      "rawhides": 8128,
      "transport": 8129,
      "Item": 8130,
      "Pink": 8131,
      "cular": 8132,
      "wolf": 8133,
      "neutral": 8134,
      "confident": 8135,
      "sprouted": 8136,
      "stating": 8137,
      "hearing": 8138,
      "code": 8139,
      "shy": 8140,
      "regon": 8141,
      "desperate": 8142,
      "Chun": 8143,
      "silver": 8144,
      "comforting": 8145,
      "restricted": 8146,
      "Gen": 8147,
      "idi": 8148,
      "recalled": 8149,
      "orrow": 8150,
      "availability": 8151,
      "noticeably": 8152,
      "Truff": 8153,
      "spectacular": 8154,
      "enhanced": 8155,
      "rubbery": 8156,
      "Caffeine": 8157,
      "Eight": 8158,
      "Glut": 8159,
      "Kro": 8160,
      "aven": 8161,
      "bee": 8162,
      "Stick": 8163,
      "drying": 8164,
      "teething": 8165,
      "decades": 8166,
      "cam": 8167,
      "role": 8168,
      "bucket": 8169,
      "sheet": 8170,
      "flavours": 8171,
      "million": 8172,
      "anxious": 8173,
      "Larabar": 8174,
      "350": 8175,
      "puri": 8176,
      "chewers": 8177,
      "Fog": 8178,
      "WN": 8179,
      "sters": 8180,
      "aggressive": 8181,
      "stops": 8182,
      "ALWAYS": 8183,
      "rescu": 8184,
      "workouts": 8185,
      "NYC": 8186,
      "LAR": 8187,
      "itas": 8188,
      "determin": 8189,
      "guarante": 8190,
      "Crocker": 8191,
      "ishi": 8192,
      "Comm": 8193,
      "cling": 8194,
      "tradition": 8195,
      "Stew": 8196,
      "Regardless": 8197,
      "City": 8198,
      "expresso": 8199,
      "Alask": 8200,
      "powers": 8201,
      "presented": 8202,
      "advised": 8203,
      "tuce": 8204,
      "scotch": 8205,
      "policy": 8206,
      "reordering": 8207,
      "ises": 8208,
      "ades": 8209,
      "RECOMMEND": 8210,
      "solve": 8211,
      "indulgence": 8212,
      "Bak": 8213,
      "itz": 8214,
      "preserve": 8215,
      "italian": 8216,
      "crock": 8217,
      "aya": 8218,
      "cuppa": 8219,
      "pepperoni": 8220,
      "seasonal": 8221,
      "160": 8222,
      "widely": 8223,
      "Family": 8224,
      "4g": 8225,
      "Oregon": 8226,
      "raspberries": 8227,
      "greater": 8228,
      "nicer": 8229,
      "January": 8230,
      "rabbit": 8231,
      "EXCELLE": 8232,
      "Whether": 8233,
      "During": 8234,
      "yy": 8235,
      "inct": 8236,
      "tool": 8237,
      "goat": 8238,
      "creative": 8239,
      "retailer": 8240,
      "buckwheat": 8241,
      "Truvia": 8242,
      "condiment": 8243,
      "Bag": 8244,
      "KES": 8245,
      "uk": 8246,
      "abund": 8247,
      "bothered": 8248,
      "god": 8249,
      "mance": 8250,
      "MOST": 8251,
      "reccomend": 8252,
      "meets": 8253,
      "orting": 8254,
      "diva": 8255,
      "shut": 8256,
      "igor": 8257,
      "Ordering": 8258,
      "anges": 8259,
      "transaction": 8260,
      "ultimate": 8261,
      "introduce": 8262,
      "delish": 8263,
      "hundreds": 8264,
      "SWEET": 8265,
      "EXCELLENT": 8266,
      "Puff": 8267,
      "loud": 8268,
      "replacing": 8269,
      "cells": 8270,
      "tied": 8271,
      "reads": 8272,
      "OOOO": 8273,
      "yucky": 8274,
      "defective": 8275,
      "BRE": 8276,
      "ann": 8277,
      "ancho": 8278,
      "Thus": 8279,
      "Heart": 8280,
      "liquor": 8281,
      "Chipotle": 8282,
      "Custo": 8283,
      "Jer": 8284,
      "arrow": 8285,
      "lecithin": 8286,
      "differ": 8287,
      "sipping": 8288,
      "biscotti": 8289,
      "antibiotics": 8290,
      "thritol": 8291,
      "nausea": 8292,
      "bam": 8293,
      "gass": 8294,
      "acy": 8295,
      "exchange": 8296,
      "holistic": 8297,
      "milks": 8298,
      "John": 8299,
      "electric": 8300,
      "Considering": 8301,
      "heaping": 8302,
      "reve": 8303,
      "rib": 8304,
      "picks": 8305,
      "locate": 8306,
      "Turkish": 8307,
      "Customer": 8308,
      "PEN": 8309,
      "gger": 8310,
      "letter": 8311,
      "Chews": 8312,
      "uniform": 8313,
      "Campbell": 8314,
      "perfume": 8315,
      "Hun": 8316,
      "york": 8317,
      "sips": 8318,
      "goal": 8319,
      "offensive": 8320,
      "coconuts": 8321,
      "Chia": 8322,
      "tolerable": 8323,
      "relaxed": 8324,
      "Yorkie": 8325,
      "Crazy": 8326,
      "Bone": 8327,
      "vague": 8328,
      "lized": 8329,
      "Chic": 8330,
      "soybean": 8331,
      "pureed": 8332,
      "walmart": 8333,
      "environmentally": 8334,
      "Jamaican": 8335,
      "72": 8336,
      "towel": 8337,
      "listen": 8338,
      "gestion": 8339,
      "vision": 8340,
      "grandchildren": 8341,
      "suggestions": 8342,
      "THANK": 8343,
      "FR": 8344,
      "reconstit": 8345,
      "raved": 8346,
      "values": 8347,
      "weekly": 8348,
      "ysis": 8349,
      "reflect": 8350,
      "Mills": 8351,
      "deliberately": 8352,
      "cast": 8353,
      "yer": 8354,
      "accom": 8355,
      "loin": 8356,
      "plement": 8357,
      "firmed": 8358,
      "sooooo": 8359,
      "cilantro": 8360,
      "LONG": 8361,
      "Ba": 8362,
      "ping": 8363,
      "bleached": 8364,
      "humid": 8365,
      "refunded": 8366,
      "NA": 8367,
      "slu": 8368,
      "esli": 8369,
      "teriyaki": 8370,
      "flash": 8371,
      "enugreek": 8372,
      "B12": 8373,
      "buyers": 8374,
      "dyes": 8375,
      "gled": 8376,
      "ART": 8377,
      "Trans": 8378,
      "questionable": 8379,
      "cancelled": 8380,
      "Drinking": 8381,
      "Fudge": 8382,
      "Bones": 8383,
      "anyways": 8384,
      "proud": 8385,
      "responded": 8386,
      "________": 8387,
      "hulls": 8388,
      "dachsh": 8389,
      "glo": 8390,
      "project": 8391,
      "illness": 8392,
      "lands": 8393,
      "affected": 8394,
      "nauzer": 8395,
      "shampoos": 8396,
      "discovering": 8397,
      "199": 8398,
      "Citr": 8399,
      "Roland": 8400,
      "eze": 8401,
      "rings": 8402,
      "pra": 8403,
      "freak": 8404,
      "Alto": 8405,
      "vibr": 8406,
      "metho": 8407,
      "400": 8408,
      "Meat": 8409,
      "scream": 8410,
      "ripe": 8411,
      "avo": 8412,
      "squeezed": 8413,
      "Shih": 8414,
      "Parmesan": 8415,
      "granules": 8416,
      ".'": 8417,
      "170": 8418,
      "SER": 8419,
      "whiff": 8420,
      "delect": 8421,
      "lettuce": 8422,
      "olly": 8423,
      "HAPP": 8424,
      "Ceylon": 8425,
      "gallons": 8426,
      ":\"": 8427,
      "WAT": 8428,
      "transit": 8429,
      "puffed": 8430,
      "bearing": 8431,
      "kel": 8432,
      "bakery": 8433,
      "scram": 8434,
      "skinny": 8435,
      "skillet": 8436,
      "strip": 8437,
      "rotten": 8438,
      "Open": 8439,
      "variation": 8440,
      "rosemary": 8441,
      "Teriyaki": 8442,
      "couscous": 8443,
      "Ale": 8444,
      "collect": 8445,
      "background": 8446,
      "12oz": 8447,
      "tomorrow": 8448,
      "passing": 8449,
      "Hips": 8450,
      "instance": 8451,
      "Safeway": 8452,
      "Cap": 8453,
      "inz": 8454,
      "prove": 8455,
      "bodies": 8456,
      "ATED": 8457,
      "glycer": 8458,
      "brushing": 8459,
      ")-": 8460,
      "Fus": 8461,
      "ena": 8462,
      "lyn": 8463,
      "tien": 8464,
      "location": 8465,
      "Follow": 8466,
      "Adult": 8467,
      "Bags": 8468,
      "Ses": 8469,
      "sicken": 8470,
      "unflavored": 8471,
      "!!!!!!": 8472,
      "follows": 8473,
      "jeeling": 8474,
      "MADE": 8475,
      "SHI": 8476,
      "waxy": 8477,
      "Pear": 8478,
      "breakage": 8479,
      "Tasted": 8480,
      "google": 8481,
      "AGAIN": 8482,
      "neighbors": 8483,
      "BER": 8484,
      "Lea": 8485,
      "tember": 8486,
      "silly": 8487,
      "popchips": 8488,
      "Orleans": 8489,
      "summary": 8490,
      "indicate": 8491,
      "SodaStream": 8492,
      "parsley": 8493,
      "Dan": 8494,
      "Due": 8495,
      "Fur": 8496,
      "GY": 8497,
      "Ken": 8498,
      "Nect": 8499,
      "Pecan": 8500,
      "Sugars": 8501,
      "Stir": 8502,
      "shedding": 8503,
      "glaze": 8504,
      "pistachios": 8505,
      "icated": 8506,
      "roof": 8507,
      "hams": 8508,
      "crush": 8509,
      "ICO": 8510,
      "Freeze": 8511,
      "Manu": 8512,
      "Emerald": 8513,
      "Texture": 8514,
      "intolerance": 8515,
      "han": 8516,
      "pred": 8517,
      "acin": 8518,
      "wellness": 8519,
      "Reese": 8520,
      "starving": 8521,
      "reputation": 8522,
      "Contains": 8523,
      "PUR": 8524,
      "Sing": 8525,
      "bra": 8526,
      "master": 8527,
      "vive": 8528,
      "acai": 8529,
      "ourselves": 8530,
      "tension": 8531,
      "airs": 8532,
      "approx": 8533,
      "soooooo": 8534,
      "equipment": 8535,
      "habanero": 8536,
      "flies": 8537,
      "anda": 8538,
      "coworkers": 8539,
      "stews": 8540,
      "Bee": 8541,
      "Reci": 8542,
      "watched": 8543,
      "liquids": 8544,
      "exceptionally": 8545,
      "Value": 8546,
      "maintenance": 8547,
      "inflamm": 8548,
      "thers": 8549,
      "predomin": 8550,
      "butters": 8551,
      "Baked": 8552,
      "Chow": 8553,
      "ski": 8554,
      "ensed": 8555,
      "controlled": 8556,
      "cartons": 8557,
      "Scalp": 8558,
      "Son": 8559,
      "las": 8560,
      "taffy": 8561,
      "pickles": 8562,
      "satisfactory": 8563,
      "Liqu": 8564,
      "killed": 8565,
      "phenomen": 8566,
      "-$": 8567,
      "FORE": 8568,
      "Mas": 8569,
      "atric": 8570,
      "tire": 8571,
      "discard": 8572,
      "blending": 8573,
      "visible": 8574,
      "remainder": 8575,
      "determine": 8576,
      "Ah": 8577,
      "BL": 8578,
      "Pick": 8579,
      "ikes": 8580,
      "sted": 8581,
      "finer": 8582,
      "Barry": 8583,
      "destroyed": 8584,
      "apricots": 8585,
      "hazard": 8586,
      "inkle": 8587,
      "built": 8588,
      "jolt": 8589,
      "Others": 8590,
      "sweat": 8591,
      "remedy": 8592,
      "alle": 8593,
      "hee": 8594,
      "degrad": 8595,
      "truck": 8596,
      "migrain": 8597,
      "sweetners": 8598,
      "desir": 8599,
      "maltodextrin": 8600,
      "rotation": 8601,
      "frustrated": 8602,
      "September": 8603,
      "dast": 8604,
      "ols": 8605,
      "llar": 8606,
      "marvel": 8607,
      "dying": 8608,
      "ORGAN": 8609,
      "stirred": 8610,
      "practical": 8611,
      "legal": 8612,
      "Sunday": 8613,
      "WONDER": 8614,
      "Pacific": 8615,
      "bush": 8616,
      "coke": 8617,
      "derived": 8618,
      "clable": 8619,
      "Adding": 8620,
      "fragile": 8621,
      "Cav": 8622,
      "Thins": 8623,
      "uled": 8624,
      "insist": 8625,
      "glue": 8626,
      "seals": 8627,
      "strainer": 8628,
      "Puppy": 8629,
      "McCann": 8630,
      "Gary": 8631,
      "Ten": 8632,
      "istan": 8633,
      "apped": 8634,
      "syrupy": 8635,
      "scented": 8636,
      "tossing": 8637,
      "Vegetable": 8638,
      "methods": 8639,
      "adian": 8640,
      "ml": 8641,
      "diamond": 8642,
      "survi": 8643,
      "ATS": 8644,
      "artificially": 8645,
      "avoided": 8646,
      "walnut": 8647,
      ".~": 8648,
      "Wil": 8649,
      "Whatever": 8650,
      "wherever": 8651,
      "tensive": 8652,
      "plays": 8653,
      "LESS": 8654,
      "Shame": 8655,
      "6g": 8656,
      "Kitty": 8657,
      "MON": 8658,
      "wound": 8659,
      "allowance": 8660,
      "steaming": 8661,
      "moldy": 8662,
      "31": 8663,
      "Bake": 8664,
      "lections": 8665,
      "beit": 8666,
      "confect": 8667,
      "worms": 8668,
      "doorstep": 8669,
      "TOT": 8670,
      "nursing": 8671,
      "Crude": 8672,
      "dastream": 8673,
      "Mur": 8674,
      "bout": 8675,
      "mayonnaise": 8676,
      "lingers": 8677,
      "spoons": 8678,
      "digestible": 8679,
      "bearable": 8680,
      "margarita": 8681,
      "Apric": 8682,
      "tles": 8683,
      "itrate": 8684,
      "grits": 8685,
      "Heinz": 8686,
      "aisle": 8687,
      "recyclable": 8688,
      "Curry": 8689,
      "gorge": 8690,
      "Beetle": 8691,
      "myst": 8692,
      "unavailable": 8693,
      "Coca": 8694,
      "ashing": 8695,
      "190": 8696,
      "econo": 8697,
      "breeds": 8698,
      "breeder": 8699,
      "EVO": 8700,
      "reluctant": 8701,
      "BAD": 8702,
      "nobody": 8703,
      "layers": 8704,
      "Hydro": 8705,
      "motivated": 8706,
      "hous": 8707,
      "backpack": 8708,
      "deceptive": 8709,
      "African": 8710,
      "novelty": 8711,
      ":*": 8712,
      "Aside": 8713,
      "Rather": 8714,
      "Took": 8715,
      "slo": 8716,
      "bec": 8717,
      "proved": 8718,
      "lotion": 8719,
      "Arabica": 8720,
      "Pasta": 8721,
      "WW": 8722,
      "waking": 8723,
      "lix": 8724,
      "sucks": 8725,
      "uster": 8726,
      "applied": 8727,
      "triple": 8728,
      "bike": 8729,
      "avoiding": 8730,
      "Flavors": 8731,
      "competition": 8732,
      "Davidson": 8733,
      "Friday": 8734,
      "FAST": 8735,
      "cled": 8736,
      "latter": 8737,
      "drunk": 8738,
      "umpy": 8739,
      "concentration": 8740,
      "fluen": 8741,
      "patient": 8742,
      "transitioning": 8743,
      "Kroger": 8744,
      "ORGANIC": 8745,
      "Count": 8746,
      "East": 8747,
      "mice": 8748,
      "vital": 8749,
      "inky": 8750,
      "dealing": 8751,
      "shortly": 8752,
      "remained": 8753,
      "mati": 8754,
      "zipan": 8755,
      "prunes": 8756,
      "Care": 8757,
      "flip": 8758,
      "rewards": 8759,
      "ctors": 8760,
      "apparent": 8761,
      "handed": 8762,
      "ISH": 8763,
      "Canadian": 8764,
      "drizzle": 8765,
      "Lindt": 8766,
      "Ari": 8767,
      "Size": 8768,
      "WANT": 8769,
      "recalls": 8770,
      "keeper": 8771,
      "undrinkable": 8772,
      "preserved": 8773,
      "Chihuahua": 8774,
      "continuing": 8775,
      "Shake": 8776,
      "brainer": 8777,
      "CHIPS": 8778,
      "Sesame": 8779,
      "EL": 8780,
      "astically": 8781,
      "conclusion": 8782,
      "Indi": 8783,
      "Godiva": 8784,
      "sprinkling": 8785,
      "Valent": 8786,
      "FRESH": 8787,
      "Verona": 8788,
      "scientific": 8789,
      "Americans": 8790,
      "delectable": 8791,
      "pushed": 8792,
      "ulsi": 8793,
      "hibit": 8794,
      "twins": 8795,
      "plaque": 8796,
      "warming": 8797,
      "building": 8798,
      "Crackers": 8799,
      "Surpr": 8800,
      "dor": 8801,
      "albeit": 8802,
      "wire": 8803,
      "perman": 8804,
      "seek": 8805,
      "birds": 8806,
      "accepted": 8807,
      "tempt": 8808,
      "Brook": 8809,
      "PLUS": 8810,
      "concoction": 8811,
      "38": 8812,
      "Zu": 8813,
      "jon": 8814,
      "agging": 8815,
      "bowels": 8816,
      "overseas": 8817,
      "marks": 8818,
      "thoughts": 8819,
      "gingerbread": 8820,
      "combinations": 8821,
      "visits": 8822,
      "painful": 8823,
      "anticipated": 8824,
      "sensitivity": 8825,
      "Bacon": 8826,
      "KNOW": 8827,
      "wary": 8828,
      "acne": 8829,
      "coca": 8830,
      "buys": 8831,
      "ENER": 8832,
      "grows": 8833,
      "signs": 8834,
      "floating": 8835,
      "Brazil": 8836,
      "HAPPY": 8837,
      "Miracle": 8838,
      "veg": 8839,
      "defe": 8840,
      "blem": 8841,
      "tendency": 8842,
      "Regular": 8843,
      "dinners": 8844,
      "aba": 8845,
      "strongest": 8846,
      "figs": 8847,
      "Mild": 8848,
      "reached": 8849,
      "hiding": 8850,
      "performance": 8851,
      "EAS": 8852,
      "Phi": 8853,
      "clu": 8854,
      "fare": 8855,
      "loa": 8856,
      "seradish": 8857,
      "everlasting": 8858,
      "Further": 8859,
      "conver": 8860,
      "lution": 8861,
      "guide": 8862,
      "heavier": 8863,
      "Prince": 8864,
      "44": 8865,
      "Mer": 8866,
      "Multi": 8867,
      "Pour": 8868,
      "ZICO": 8869,
      "hoo": 8870,
      "lite": 8871,
      "thed": 8872,
      "washer": 8873,
      "adap": 8874,
      "olds": 8875,
      "buttermilk": 8876,
      "Added": 8877,
      "2008": 8878,
      "recognize": 8879,
      "rapid": 8880,
      "WONDERFUL": 8881,
      "Fed": 8882,
      "Nespresso": 8883,
      "msy": 8884,
      "steps": 8885,
      "Sticks": 8886,
      "Petsmart": 8887,
      "Costa": 8888,
      "Sumatran": 8889,
      "wipe": 8890,
      "protien": 8891,
      "mesh": 8892,
      "avail": 8893,
      "deeply": 8894,
      "Vermont": 8895,
      "destroy": 8896,
      "Truly": 8897,
      "Korean": 8898,
      "bomb": 8899,
      "cuis": 8900,
      "Sub": 8901,
      "intestines": 8902,
      "peppered": 8903,
      "coo": 8904,
      "vast": 8905,
      "copher": 8906,
      "convert": 8907,
      "fave": 8908,
      "snif": 8909,
      "Beaut": 8910,
      "ALSO": 8911,
      "touched": 8912,
      "spective": 8913,
      "prescribed": 8914,
      "frustrating": 8915,
      "decrease": 8916,
      "========": 8917,
      "Chicago": 8918,
      "treme": 8919,
      "bug": 8920,
      "psy": 8921,
      "vesti": 8922,
      "apy": 8923,
      "fatten": 8924,
      "Flakes": 8925,
      "Quinoa": 8926,
      "Serve": 8927,
      "Buyer": 8928,
      "^^": 8929,
      "nt": 8930,
      "inos": 8931,
      "selections": 8932,
      "flav": 8933,
      "ickers": 8934,
      "ameter": 8935,
      "colorful": 8936,
      "puzzle": 8937,
      "requirements": 8938,
      "BACK": 8939,
      "General": 8940,
      "79": 8941,
      "ail": 8942,
      "hearti": 8943,
      "christmas": 8944,
      "covers": 8945,
      "moments": 8946,
      "unpopped": 8947,
      "yours": 8948,
      "REDI": 8949,
      "amping": 8950,
      "definit": 8951,
      "RIBLE": 8952,
      "avoca": 8953,
      "gf": 8954,
      "rac": 8955,
      "rels": 8956,
      "cru": 8957,
      "commonly": 8958,
      "Stay": 8959,
      "baker": 8960,
      "Teav": 8961,
      "thirsty": 8962,
      "enthusiastic": 8963,
      "remarkable": 8964,
      "achieve": 8965,
      "LIT": 8966,
      "clar": 8967,
      "inci": 8968,
      "sey": 8969,
      "chick": 8970,
      "plen": 8971,
      "choc": 8972,
      "discus": 8973,
      "presents": 8974,
      "mouths": 8975,
      "cucum": 8976,
      "countries": 8977,
      "struggle": 8978,
      "Belgian": 8979,
      "CHOCOL": 8980,
      "Community": 8981,
      "clim": 8982,
      "fellow": 8983,
      "diameter": 8984,
      "minds": 8985,
      "dente": 8986,
      "varies": 8987,
      "WERE": 8988,
      "dramatic": 8989,
      "Nylabone": 8990,
      "Ethiopian": 8991,
      "Chas": 8992,
      "extensive": 8993,
      "voila": 8994,
      "Enfamil": 8995,
      "gnaw": 8996,
      "pricier": 8997,
      "coholic": 8998,
      "Harvest": 8999,
      "toddlers": 9000,
      "critic": 9001,
      "committing": 9002,
      "desirable": 9003,
      "Naked": 9004,
      "fical": 9005,
      "zona": 9006,
      "los": 9007,
      "compromise": 9008,
      "berts": 9009,
      "STRONG": 9010,
      "tah": 9011,
      "infant": 9012,
      "Jims": 9013,
      "flimsy": 9014,
      "vate": 9015,
      "ombu": 9016,
      "increases": 9017,
      "passes": 9018,
      "barbeque": 9019,
      "Direct": 9020,
      "Pedigree": 9021,
      "Eating": 9022,
      "Pap": 9023,
      "commun": 9024,
      "vom": 9025,
      "ITS": 9026,
      "ANYTHING": 9027,
      "evidence": 9028,
      "ENTS": 9029,
      "estern": 9030,
      "Beetlejuice": 9031,
      "Ly": 9032,
      "enan": 9033,
      "estim": 9034,
      "vember": 9035,
      "bonate": 9036,
      "AFTER": 9037,
      "3oz": 9038,
      "88": 9039,
      "Jam": 9040,
      "uted": 9041,
      "ched": 9042,
      "probiotics": 9043,
      "clue": 9044,
      "Newtons": 9045,
      "Zukes": 9046,
      "FAN": 9047,
      "Glen": 9048,
      "Gusto": 9049,
      "Morning": 9050,
      "erig": 9051,
      "chances": 9052,
      "soph": 9053,
      "lesson": 9054,
      "suppli": 9055,
      "massive": 9056,
      "Supplement": 9057,
      "formulation": 9058,
      "flex": 9059,
      "Certain": 9060,
      "OUGHT": 9061,
      "69": 9062,
      "://": 9063,
      "Equal": 9064,
      "chur": 9065,
      "defic": 9066,
      "urday": 9067,
      "simo": 9068,
      "opener": 9069,
      "ational": 9070,
      "websites": 9071,
      "eagerly": 9072,
      "UCK": 9073,
      "cro": 9074,
      "dut": 9075,
      "dare": 9076,
      "dab": 9077,
      "thaw": 9078,
      "bless": 9079,
      "Init": 9080,
      "Newmans": 9081,
      "mming": 9082,
      "object": 9083,
      "Brewer": 9084,
      "deserve": 9085,
      "Gun": 9086,
      "Gave": 9087,
      "isite": 9088,
      "forgotten": 9089,
      "timate": 9090,
      "mize": 9091,
      "artifical": 9092,
      "ERO": 9093,
      "Canned": 9094,
      "ARK": 9095,
      "DOG": 9096,
      "oxide": 9097,
      "BOX": 9098,
      "Yorkshire": 9099,
      "Crisp": 9100,
      "physical": 9101,
      "Teavana": 9102,
      "clip": 9103,
      "vents": 9104,
      "vana": 9105,
      "wean": 9106,
      "sif": 9107,
      "reality": 9108,
      "meric": 9109,
      "lemons": 9110,
      "consideration": 9111,
      "drier": 9112,
      "Seeds": 9113,
      "Nutri": 9114,
      "2007": 9115,
      "recycled": 9116,
      "gassy": 9117,
      "Bla": 9118,
      "CORN": 9119,
      "Ms": 9120,
      "cone": 9121,
      "ith": 9122,
      "pad": 9123,
      "assure": 9124,
      "intensity": 9125,
      "mony": 9126,
      "hottest": 9127,
      "clam": 9128,
      "trainer": 9129,
      "spreads": 9130,
      "morsels": 9131,
      "decreased": 9132,
      "Retri": 9133,
      "embarrass": 9134,
      "veterinarian": 9135,
      "sniffed": 9136,
      "mick": 9137,
      "pler": 9138,
      "lieve": 9139,
      "athon": 9140,
      "blos": 9141,
      "CAUSE": 9142,
      "rinsing": 9143,
      "64": 9144,
      "Cool": 9145,
      "Dise": 9146,
      "Press": 9147,
      "usages": 9148,
      "ifying": 9149,
      "dismay": 9150,
      "realizing": 9151,
      "awa": 9152,
      "Organ": 9153,
      "NEED": 9154,
      "McCor": 9155,
      "moderately": 9156,
      "thirty": 9157,
      "Kcups": 9158,
      "phi": 9159,
      "rer": 9160,
      "ingo": 9161,
      "chas": 9162,
      "opti": 9163,
      "...\"": 9164,
      "spicier": 9165,
      "crunchiness": 9166,
      "direction": 9167,
      "speaking": 9168,
      "respond": 9169,
      "menu": 9170,
      "SUPER": 9171,
      "bamboo": 9172,
      "Asp": 9173,
      "ost": 9174,
      "pient": 9175,
      "ctic": 9176,
      "ultra": 9177,
      "ichon": 9178,
      "crun": 9179,
      "spong": 9180,
      "smoothness": 9181,
      "clothes": 9182,
      "burrit": 9183,
      "Toast": 9184,
      "Trust": 9185,
      "severely": 9186,
      "Darjeeling": 9187,
      "caveat": 9188,
      "37": 9189,
      "investi": 9190,
      "roid": 9191,
      "wizz": 9192,
      "copy": 9193,
      "aret": 9194,
      "radi": 9195,
      "2013": 9196,
      "hesitation": 9197,
      "IMHO": 9198,
      "Rainforest": 9199,
      "lobster": 9200,
      "choosing": 9201,
      "genetically": 9202,
      "CHOCOLATE": 9203,
      "loses": 9204,
      "deliciously": 9205,
      "dropping": 9206,
      "ification": 9207,
      "Train": 9208,
      "Clock": 9209,
      "Dep": 9210,
      "Tet": 9211,
      "Wis": 9212,
      "bate": 9213,
      "pint": 9214,
      "tout": 9215,
      "erh": 9216,
      "itor": 9217,
      "ences": 9218,
      "merely": 9219,
      "compe": 9220,
      "spout": 9221,
      "lowers": 9222,
      "survive": 9223,
      "Buddy": 9224,
      "ONEY": 9225,
      "Traditional": 9226,
      "cautious": 9227,
      "route": 9228,
      "employe": 9229,
      "Retriever": 9230,
      "Disease": 9231,
      "Du": 9232,
      "insom": 9233,
      "model": 9234,
      "chocoholic": 9235,
      "impress": 9236,
      "hormon": 9237,
      "biotic": 9238,
      "organiz": 9239,
      "analysis": 9240,
      "Ramen": 9241,
      ";-)": 9242,
      "Altoids": 9243,
      "Rep": 9244,
      "Squee": 9245,
      "cino": 9246,
      "quet": 9247,
      "safer": 9248,
      "wasnt": 9249,
      "mistaken": 9250,
      "slip": 9251,
      "Arizona": 9252,
      "Dave": 9253,
      "GRA": 9254,
      "Pay": 9255,
      "iatric": 9256,
      "thai": 9257,
      "aded": 9258,
      "shir": 9259,
      "ders": 9260,
      "mailed": 9261,
      "sickness": 9262,
      "ignore": 9263,
      "repeatedly": 9264,
      "Glutino": 9265,
      "economy": 9266,
      "CAR": 9267,
      "Den": 9268,
      "Vit": 9269,
      "oli": 9270,
      "berg": 9271,
      "Extreme": 9272,
      "oxy": 9273,
      "dependent": 9274,
      "WATER": 9275,
      "CLE": 9276,
      "Fill": 9277,
      "NC": 9278,
      "trou": 9279,
      "exter": 9280,
      "salami": 9281,
      "Conven": 9282,
      "furry": 9283,
      "leads": 9284,
      "splurge": 9285,
      "resemble": 9286,
      "damn": 9287,
      "marvelous": 9288,
      "rack": 9289,
      "oph": 9290,
      "donate": 9291,
      "disa": 9292,
      "hypo": 9293,
      "opinions": 9294,
      "apartment": 9295,
      "successfully": 9296,
      "BOLD": 9297,
      "jerk": 9298,
      "Maine": 9299,
      "Puffs": 9300,
      "Dutch": 9301,
      "FIND": 9302,
      "Lon": 9303,
      "RY": 9304,
      "ique": 9305,
      "inart": 9306,
      "youth": 9307,
      "dill": 9308,
      "lesser": 9309,
      "Believe": 9310,
      "condensed": 9311,
      "parent": 9312,
      "stinks": 9313,
      "families": 9314,
      "promotes": 9315,
      "Steak": 9316,
      "determined": 9317,
      "B6": 9318,
      "Passion": 9319,
      "Tarts": 9320,
      "Zi": 9321,
      "tious": 9322,
      "spike": 9323,
      "lua": 9324,
      "processor": 9325,
      "extracts": 9326,
      "membership": 9327,
      "Lucy": 9328,
      "rescued": 9329,
      "phenomenal": 9330,
      "=)": 9331,
      "Smi": 9332,
      "paired": 9333,
      "altogether": 9334,
      "users": 9335,
      "quarts": 9336,
      "nog": 9337,
      "supplies": 9338,
      "osity": 9339,
      "confidence": 9340,
      "insert": 9341,
      "component": 9342,
      "intrigued": 9343,
      "PURCH": 9344,
      "mystery": 9345,
      "lumps": 9346,
      "rr": 9347,
      "reuse": 9348,
      "stairs": 9349,
      "beach": 9350,
      "confirmed": 9351,
      "veness": 9352,
      "THERE": 9353,
      "Chex": 9354,
      "beatable": 9355,
      "played": 9356,
      "gather": 9357,
      "breastfeeding": 9358,
      "horribly": 9359,
      "crowd": 9360,
      "guaranteed": 9361,
      "Bakery": 9362,
      "beet": 9363,
      "maha": 9364,
      "rent": 9365,
      "theirs": 9366,
      "series": 9367,
      "cardio": 9368,
      "Inst": 9369,
      "cury": 9370,
      "street": 9371,
      "Sriracha": 9372,
      "Maid": 9373,
      "alas": 9374,
      "ofla": 9375,
      "rides": 9376,
      "convi": 9377,
      "ums": 9378,
      "stray": 9379,
      "November": 9380,
      "Tiki": 9381,
      "iods": 9382,
      "suckers": 9383,
      "Favor": 9384,
      "Fel": 9385,
      "Fron": 9386,
      "Kris": 9387,
      "eu": 9388,
      "tears": 9389,
      "NOTE": 9390,
      "begs": 9391,
      "rounds": 9392,
      "breasts": 9393,
      "RIED": 9394,
      "device": 9395,
      "ttp": 9396,
      "Murray": 9397,
      "gorgeous": 9398,
      "doses": 9399,
      "poly": 9400,
      "clay": 9401,
      "relatives": 9402,
      "tablet": 9403,
      "systems": 9404,
      "pulling": 9405,
      "legant": 9406,
      "scary": 9407,
      "regulate": 9408,
      "praise": 9409,
      "gut": 9410,
      "delay": 9411,
      "divid": 9412,
      "cav": 9413,
      "afterward": 9414,
      "freezing": 9415,
      "Blood": 9416,
      "STILL": 9417,
      "gladly": 9418,
      "smoking": 9419,
      "claimer": 9420,
      "nibs": 9421,
      "Frosted": 9422,
      "promote": 9423,
      "wing": 9424,
      "otto": 9425,
      "unsure": 9426,
      "stopping": 9427,
      "gover": 9428,
      "calcul": 9429,
      "lessly": 9430,
      "cription": 9431,
      "ideas": 9432,
      "umptious": 9433,
      "planted": 9434,
      "explained": 9435,
      "Mustard": 9436,
      "sulfate": 9437,
      "Liquid": 9438,
      "2oz": 9439,
      "89": 9440,
      "cise": 9441,
      "compact": 9442,
      "pickle": 9443,
      "vals": 9444,
      "crumbles": 9445,
      "pains": 9446,
      "reaching": 9447,
      "kernel": 9448,
      "Michi": 9449,
      "reply": 9450,
      "ghan": 9451,
[...]
